node {
  name: "Train/TrainInput/raw_data"
  op: "Const"
  attr {
    key: "_output_shapes"
    value {
      list {
        shape {
          dim {
            size: 41617
          }
        }
      }
    }
  }
  attr {
    key: "dtype"
    value {
      type: DT_INT32
    }
  }
  attr {
    key: "value"
    value {
      tensor {
        dtype: DT_INT32
        tensor_shape {
          dim {
            size: 41617
          }
        }
        tensor_content: "\315\006\000\000\346\005\000\000\340\000\000\000\003\000\000\0001\000\000\000\003\000\000\000u\000\000\000)\000\000\000\360\002\000\000\350\002\000\000\017\007\000\000\311\006\000\000\005\000\000\000\000\000\000\000\360\002\000\000\350\002\000\000\005\013\000\000\324\001\000\000\277\002\000\000\003\000\000\000D\000\000\000#\t\000\000\027\000\000\000%\000\000\000=\000\000\000\024\020\000\000\000\000\000\000\254\003\000\000\017\000\000\000\014\000\000\000%\000\000\0009\020\000\000\005\000\000\000\000\000\000\000<\013\000\000\277\016\000\000\034\000\000\000\022\000\000\000\311\006\000\000\005\000\000\000\000\000\000\000#\t\000\000\037\000\000\000\000\000\000\000?\003\000\000i\001\000\000\022\000\000\000(\n\000\000^\000\000\000\000\000\000\000#\024\000\000%\000\000\000\317\000\000\000\016\010\000\000\020\000\000\000\003\r\000\000\365\t\000\000\001\000\000\000?\003\000\000e\023\000\000\231\000\000\000\017\000\000\000\320\006\000\000\001\000\000\000&\n\000\000B\000\000\000\027\000\000\000\'\000\000\000\004\000\000\000\256\016\000\000$\n\000\000{\002\000\000K\001\000\000%\000\000\000<\007\000\000\021\000\000\000o\000\000\000\000\000\000\000\356\t\000\000\026\000\000\000\262\000\000\000\002\000\000\000?\007\000\000\000\000\000\000{\002\000\000K\001\000\000\020\000\000\0004\000\000\000\357\000\000\000\222\000\000\000\355\020\000\000]\000\000\000\254\003\000\000\212\001\000\000\313\000\000\000\004\000\000\000\265\000\000\000\031\000\000\000\000\000\000\000C\002\000\000\274\001\000\000\005\000\000\000\034\000\000\000\205\016\000\000\027\000\000\000.\r\000\000\007\000\000\000\002\000\000\000:\001\000\000\034\000\000\000?\003\000\000&\000\000\0004\000\000\000\331\000\000\000\211\007\000\000M\003\000\000k\000\000\000\241\007\000\000\243\001\000\000\376\000\000\000\020\000\000\000\000\000\000\000\345\000\000\000\324\010\000\000\'\000\000\000\024\000\000\000\343\010\000\000\034\000\000\000\022\n\000\000\002\000\000\000\000\000\000\000\277\002\000\000\003\000\000\000\257\003\000\000\301\001\000\000\233\023\000\000\241\007\000\000\364\022\000\000\020\n\000\000\323\010\000\000)\000\000\000F\001\000\000\262\016\000\000\001\000\000\000)\000\000\000\334\013\000\000\255\002\000\000.\n\000\000\027\n\000\000\340\002\000\000\244\002\000\000)\000\000\000\264\016\000\000\003\000\000\000\263\023\000\000\001\000\000\000\310\014\000\000\274\001\000\000&\000\000\000\374\013\000\000\310\000\000\000\272\001\000\000\002\000\000\000`\000\000\000m\004\000\000\001\000\000\000\205\002\000\000\274\001\000\000\022\000\000\000\331\016\000\000\221\003\000\000\027\000\000\000\277\001\000\0004\000\000\000\256\005\000\0001\000\000\000\003\000\000\000D\000\000\000)\000\000\000\360\002\000\000\350\002\000\000?\004\000\000\037\017\000\0000\n\000\000L\n\000\000\366\t\000\000\315\006\000\000\346\005\000\000\340\000\000\000\003\000\000\0001\000\000\000\003\000\000\000u\000\000\000)\000\000\000\360\002\000\000\350\002\000\000\017\007\000\000\016\n\000\000?\003\000\000\000\001\000\000\026\000\000\000\367\002\000\000\320\006\000\000,\000\000\000%\n\000\000\023\014\000\000\002\r\000\000\003\000\000\000G\000\000\000\340\002\000\000`\000\000\000\004\000\000\000\021\002\000\0008\020\000\000\'\n\000\000\244\023\000\000\001\013\000\000&\000\000\000y\006\000\000U\022\000\000`\000\000\000\021\002\000\000]\017\000\000#\n\000\000\034\000\000\000\340\000\000\000\010\000\000\000\244\002\000\000\020\000\000\000\310\000\000\000\272\001\000\000)\000\000\000\235\n\000\000\266\017\000\000\027\000\000\000%\000\000\000=\000\000\000\027\004\000\000\002\000\000\000\354\003\000\000\021\000\000\000G\000\000\000#\003\000\000$\000\000\000\264\004\000\000\005\000\000\000i\n\000\000\003\000\000\000\000\000\000\000\204\010\000\000\354\003\000\000W\014\000\000\020\000\000\000\225\000\000\000\020\000\000\0003\001\000\000\235\007\000\000\212\001\000\0004\020\000\000\232\002\000\000\034\000\000\000\024\006\000\000\207\001\000\000a\000\000\000\236\003\000\000%\000\000\000\321\007\000\000\227\t\000\000\315\017\000\000\003\000\000\000\000\000\000\000J\001\000\000\226\001\000\000\003\000\000\000\000\000\000\000\264\004\000\000\003\000\000\000S\000\000\000\231\000\000\000\217\n\000\000\000\000\000\000\204\010\000\000\354\003\000\000[\004\000\000\003\000\000\000\021\000\000\000\310\000\000\000\272\001\000\000\340\002\000\000\022\000\000\000\031\000\000\000\316\017\000\000\215\013\000\000\217\001\000\000\003\000\000\000\000\000\000\000J\001\000\000\226\001\000\000\003\000\000\000\000\000\000\000{\022\000\000\264\004\000\000\004\000\000\000\367\020\000\000\243\023\000\000Q\000\000\000\350\001\000\000\026\000\000\000\354\020\000\000\020\000\000\000\271\022\000\000\320\013\000\000\001\000\000\000\235\007\000\000)\000\000\000\266\000\000\0009\000\000\000$\001\000\000\002\000\000\000\'\000\000\000\037\000\000\000\002\000\000\000\026\000\000\000\262\000\000\000\007\000\000\000+\000\000\000k\000\000\000h\000\000\000\002\000\000\000[\004\000\000\373\000\000\000\001\r\000\000P\n\000\000\212\001\000\000?\007\000\000?\003\000\0006\t\000\000\005\000\000\000\000\000\000\000\373\000\000\000\332\023\000\000\003\000\000\000\000\000\000\000\345\000\000\000\264\004\000\000\255\002\000\000G\000\000\000\204\004\000\000P\006\000\000\201\000\000\000\004\000\000\000_\013\000\000\005\000\000\000\n\000\000\000\006\000\000\000\327\021\000\000\000\000\000\000[\004\000\000O\n\000\000\002\000\000\000\324\007\000\000\001\000\000\000{\r\000\000\004\000\000\000\265\000\000\000\031\000\000\000\000\000\000\000?\003\000\000\377\003\000\000;\000\000\000+\000\000\000\002\000\000\0001\002\000\000\016\000\000\000\027\000\000\000;\000\000\000\354\000\000\000\002\000\000\000m\000\000\000\004\000\000\000\021\002\000\0000\003\000\000\201\000\000\000\031\000\000\000\316\003\000\000$\000\000\000h\013\000\000[\000\000\000,\000\000\000\252\004\000\000\274\001\000\000v\000\000\000\310\000\000\000\272\001\000\000\010\n\000\000\205\020\000\000\027\000\000\000O\006\000\000v\000\000\000\207\000\000\000\262\004\000\000\220\007\000\000\020\000\000\000\014\001\000\000\353\002\000\000\027\000\000\000\302\000\000\000\000\000\000\000\250\r\000\000J\003\000\000\022\000\000\000$\000\000\000\363\013\000\000F\r\000\000\020\000\000\000Z\000\000\000\273\000\000\000\n\000\000\000\027\000\000\000\313\000\000\000\002\000\000\000`\000\000\000S\000\000\000\340\000\000\000\344\021\000\000\252\007\000\000\035\021\000\000\000\r\000\000{\002\000\000\023\t\000\000\001\000\000\000\213\n\000\000\000\000\000\000{\002\000\000B\010\000\000!\024\000\000H\r\000\000\034\000\000\000\032\021\000\000\334\n\000\000\022\000\000\000$\000\000\000\013\002\000\000\262\004\000\000\324\010\000\000\"\000\000\000G\000\000\000\031\005\000\000<\006\000\000\207\t\000\000\022\000\000\000+\020\000\000G\r\000\000\031\000\000\000$\000\000\000\305\014\000\000@\000\000\000\027\000\000\000O\006\000\000\367\t\000\000\262\004\000\000\220\007\000\000<\006\000\000\353\002\000\000\034\000\000\000\362\t\000\000\017\000\000\000\027\000\000\000\354\003\000\000\002\023\000\000\207\t\000\000\254\003\000\000<\006\000\000\362\017\000\000,\000\000\000=\n\000\000[\000\000\000\340\002\000\000\005\000\000\000/\n\000\000\020\000\000\000\004\000\000\000\237\t\000\000\003\000\000\000F\n\000\000\"\000\000\000]\000\000\000\214\001\000\000f\000\000\000\317\006\000\000\003\000\000\000\000\000\000\000\333\013\000\000\335\020\000\000@\000\000\000\000\000\000\000\237\t\000\000\000\001\000\000\214\001\000\000E\n\000\000(\013\000\000\340\002\000\000\000\000\000\000\360\007\000\000\003\000\000\000\310\000\000\000\272\001\000\000\022\000\000\000\002\000\000\000\031\001\000\000\200\000\000\000$\000\000\000N\023\000\000\340\000\000\000\254\003\000\000)\000\000\000\000\000\000\000\\\014\000\000;\n\000\000.\005\000\000K\n\000\000\"\024\000\000\035\n\000\000\034\000\000\000\022\000\000\000\263\002\000\000\005\023\000\000\036\023\000\000\014\001\000\000\002\000\000\000$\000\000\000\013\002\000\000\262\004\000\000N\021\000\0003\000\000\000\022\000\000\000N\000\000\000\317\006\000\000\003\000\000\000\000\000\000\000_\003\000\000Z\003\000\000\003\000\000\000M\004\000\000\254\006\000\000.\005\000\000\000\001\000\000+\000\000\000\031\000\000\000\316\003\000\000a\023\000\000\017\000\000\000\230\000\000\000M\004\000\000\254\006\000\000\017\000\000\000\333\000\000\000\037\000\000\000\n\000\000\000;\000\000\000\323\004\000\0005\000\000\000e\003\000\000\252\004\000\000w\000\000\000?\n\000\000\003\000\000\000\000\000\000\000\254\006\000\000\005\000\000\000.\005\000\000\027\000\000\000\277\001\000\0004\000\000\000\256\005\000\000[\000\000\000w\000\000\000\232\001\000\000\021\000\000\000\256\005\000\000\000\001\000\000\026\000\000\000H\000\000\000\002\000\000\000\310\000\000\000e\016\000\000\001\000\000\000%\000\000\000\205\t\000\000`\014\000\000\002\000\000\000\000\000\000\000\252\003\000\000~\n\000\000)\000\000\000F\002\000\000\006\n\000\000J\n\000\000~\013\000\000\302\017\000\000~\023\000\000\020\000\000\000]\000\000\000\001\000\000\000K\000\000\000\270\017\000\000\212\001\000\000\242\017\000\000 \023\000\000\310\000\000\000\272\001\000\000~\020\000\0002\006\000\000F\013\000\0008\n\000\000\223\013\000\000\300\016\000\000B\n\000\000B\000\000\000\021\000\000\000K\000\000\000\243\007\000\000|\r\000\000\354\000\000\000G\000\000\000Z\r\000\000\234\014\000\000g\010\000\000\004\t\000\000\004\010\000\000I\n\000\000\027\000\000\000-\000\000\000\303\004\000\000\002\000\000\000\010\003\000\000\007\000\000\000\034\000\000\000\274\001\000\000)\000\000\000\243\007\000\000\007\n\000\000.\013\000\000\332\013\000\000\332\n\000\000,\000\000\000\271\017\000\000\r\n\000\000\"\000\000\000\007\000\000\000+\000\000\000k\000\000\000\204\004\000\000P\006\000\000+\004\000\000%\r\000\000\212\001\000\000\204\004\000\000\332\002\000\000\002\000\000\000\000\000\000\000\310\000\000\000\272\001\000\000\266\n\000\000N\n\000\000\223\023\000\000\'\000\000\000\024\000\000\000\261\010\000\000\001\000\000\000\263\013\000\000\310\006\000\000f\023\000\000\204\004\000\000g\023\000\000~\017\000\000\226\n\000\000\232\020\000\000*\024\000\0008\007\000\000K\r\000\000r\000\000\000\032\n\000\000,\000\000\0008\007\000\000J\r\000\000M\n\000\000\367\004\000\000\376\007\000\000\020\000\000\000[\000\000\000\351\016\000\000\232\014\000\000\322\006\000\000m\000\000\000\320\007\000\000`\000\000\000,\000\000\000f\010\000\000\322\006\000\000`\000\000\000\254\003\000\000\310\006\000\000n\001\000\000)\013\000\000\020\000\000\000-\024\000\000\320\007\000\000`\000\000\000\336\016\000\000\020\000\000\000\004\000\000\000\024\006\000\000\003\000\000\000#\003\000\000\001\000\000\000`\000\000\000\021\002\000\000\376\007\000\000\020\000\000\000\021\016\000\000\274\001\000\000\001\000\000\000f\010\000\000b\016\000\000\020\000\000\000\"\020\000\000\021\n\000\000\244\002\000\000)\000\000\000\000\000\000\000\310\000\000\000\272\001\000\000\251\004\000\000n\n\000\000\013\n\000\000\207\020\000\000\017\n\000\000\322\000\000\000\t\021\000\000\350\003\000\0005\003\000\000L\r\000\000\370\000\000\000\022\000\000\000\034\000\000\000\322\000\000\000\000\003\000\000o\003\000\000\221\000\000\000\007\000\000\0002\017\000\000H\017\000\000\014\000\000\000\242\000\000\0005\000\000\000\007\000\000\000\241\000\000\000\265\022\000\0005\000\000\000\"\000\000\000?\000\000\000\022\000\000\000\352\000\000\000\035\003\000\000\025\000\000\0004\000\000\0000\003\000\000\003\000\000\000\034\000\000\000;\003\000\000s\000\000\000\"\000\000\000\007\000\000\000c\001\000\000\n\000\000\000\020\000\000\000\257\003\000\000#\000\000\000m\003\000\000K\000\000\000w\000\000\000\004\001\000\000\001\000\000\000s\000\000\000\"\000\000\000\323\t\000\000\035\003\000\000\022\000\000\000\024\000\000\000G\000\000\000v\004\000\000\365\000\000\000C\001\000\000K\000\000\000u\003\000\000\034\000\000\000\322\000\000\000\000\003\000\000o\003\000\000\207\007\000\000\236\000\000\000\003\000\000\000G\000\000\000D\010\000\000\002\000\000\000\007\000\000\000\n\000\000\000\334\000\000\000\360\022\000\000\007\000\000\000Z\000\000\000\007\000\000\000:\000\000\000\244\003\000\000\222\005\000\000\003\000\000\000\034\000\000\000\340\000\000\000\"\000\000\000\007\000\000\000\222\001\000\000\002\000\000\000\023\n\000\000\007\000\000\000\300\000\000\000,\000\000\000\322\010\000\000\034\000\000\000\340\000\000\000)\000\000\000\270\t\000\000,\000\000\000\325\010\000\000S\000\000\000\020\001\000\000\003\000\000\000\034\000\000\000\310\000\000\000\270\003\000\000;\003\000\000\007\000\000\000\000\006\000\000\006\000\000\000\007\000\000\000\022\005\000\000\303\002\000\000\002\000\000\000\001\000\000\000\325\006\000\000\034\000\000\000\322\000\000\000\000\003\000\000o\003\000\000\"\000\000\000\007\000\000\000\'\000\000\0000\006\000\000\007\000\000\000:\000\000\000U\002\000\000\004\000\000\000\320\004\000\000\003\000\000\000\000\000\000\000\263\004\000\000\314\006\000\000\356\006\000\000\007\000\000\000^\003\000\000\020\000\000\000\034\000\000\000\340\000\000\000)\000\000\000\"\t\000\000\004\000\000\000c\006\000\000i\002\000\000:\n\000\000\242\003\000\000\003\000\000\000\330\010\000\000\n\000\000\000\002\000\000\000\000\000\000\000\352\001\000\000\007\000\000\000c\001\000\000\n\000\000\000#\000\000\000\"\000\000\000\007\000\000\000\351\003\000\000\034\000\000\000\340\000\000\000&\000\000\000\004\000\000\000\245\010\000\000\261\004\000\000\t\n\000\000\017\000\000\000\004\000\000\000\254\014\000\000\007\000\000\000d\000\000\000!\001\000\000\n\000\000\000\025\000\000\0004\000\000\000c\006\000\000v\000\000\000\310\000\000\000\270\003\000\000\340\002\000\000\034\000\000\000\310\000\000\000\270\003\000\000;\003\000\000n\000\000\000\236\000\000\000\310\000\000\000d\016\000\000\037\023\000\000m\004\000\000\022\000\000\000\004\000\000\000\350\003\000\0005\003\000\000\302\000\000\000\276\014\000\000)\000\000\000\245\002\000\000g\010\000\000\004\t\000\000\004\010\000\000r\000\000\000\000\000\000\000\310\000\000\000\272\001\000\000\375\006\000\000\031\000\000\0003\007\000\000\251\006\000\000\n\n\000\000\030\021\000\000C\001\000\000K\000\000\000u\003\000\000\034\000\000\000\206\001\000\000\006\000\000\0000\000\000\000$\000\000\000{\020\000\000\004\000\000\000\265\t\000\000\216\006\000\000{\002\000\000&\000\000\000,\000\000\000\020\000\000\000\034\000\000\000(\004\000\000\037\000\000\000\000\000\000\000\310\000\000\000\313\006\000\000)\024\000\000:\000\000\0000\003\000\000\001\000\000\000\244\003\000\000\n\000\000\000\005\000\000\000\000\000\000\000\265\t\000\000\216\006\000\000\006\001\000\000\241\010\000\000\001\000\000\000\006\001\000\000\242\020\000\000{\002\000\000\377\010\000\000R\t\000\000\264\021\000\000n\001\000\000\352\r\000\000`\005\000\000\361\006\000\000\"\000\000\000\007\000\000\000$\001\000\000\002\000\000\0000\003\000\000\001\000\000\000\244\003\000\000\034\000\000\000\340\000\000\000\216\000\000\000\000\000\000\000\272\010\000\000\310\000\000\000\272\001\000\000\240\t\000\000\002\000\000\000-\014\000\000]\000\000\000m\004\000\000\000\000\000\000\310\000\000\000c\r\000\000[\007\000\000j\004\000\000\002\000\000\000\274\016\000\0005\023\000\000\001\000\000\000\034\021\000\000\350\003\000\0005\003\000\000\301\006\000\000\205\014\000\000]\000\000\000\n\r\000\000\000\000\000\000\272\010\000\000\340\002\000\000\001\000\000\000S\000\000\000\261\004\000\000\014\000\000\000Q\000\000\000\026\000\000\000&\000\000\000Q\000\000\000\\\007\000\000u\007\000\000C\001\000\000K\000\000\000u\003\000\000u\007\000\000Q\000\000\000\313\000\000\000\000\000\000\000\030\001\000\000\003\000\000\000\333\016\000\000\325\016\000\000,\000\000\000\024\014\000\000V\014\000\0006\023\000\000C\r\000\000\004\000\000\000{\002\000\000,\000\000\000K\000\000\000\372\016\000\000\036\021\000\000\353\016\000\000\004\000\000\000c\014\000\000,\000\000\000N\014\000\000\253\014\000\000,\000\000\000K\000\000\000\340\000\000\000b\010\000\000\004\000\000\000M\004\000\000\253\023\000\000,\000\000\000M\004\000\000\302\013\000\000\006\000\000\000M\014\000\000,\000\000\000w\001\000\000\026\000\000\000\322\010\000\000)\000\000\0004\000\000\000A\r\000\000\022\006\000\000\306\t\000\000\244\014\000\000\003\000\000\000m\007\000\000\016\000\000\000\020\000\000\000\000\000\000\000\363\000\000\000\003\000\000\000a\006\000\000,\000\000\000\320\004\000\000}\014\000\000`\005\000\0000\005\000\000\000\000\000\000\310\000\000\000\313\006\000\000S\000\000\000K\000\000\000\300\001\000\000\007\000\000\000Q\000\000\000U\002\000\000\034\000\000\000\340\000\000\000#\000\000\000\017\000\000\000\004\000\000\000\310\000\000\000\270\003\000\000I\r\000\000\207\007\000\000\021\000\000\000D\010\000\000\002\000\000\000\007\000\000\000\020\000\000\000\240\005\000\000\027\014\000\000\001\000\000\000e\r\000\000D\002\000\000\251\004\000\000\311\007\000\000\001\000\000\0001\005\000\000\007\000\000\000+\000\000\0000\000\000\000s\021\000\000\020\000\000\000\035\020\000\000,\000\000\000\216\000\000\000\236\022\000\000E\010\000\000,\000\000\000\020\000\000\000O\013\000\000\003\000\000\000\306\t\000\000,\000\000\000\002\014\000\000D\002\000\000\016\000\000\000\024\000\000\000\022\006\000\000\002\000\000\000\343\016\000\000\362\013\000\0003\021\000\000,\000\000\000\330\016\000\000\240\005\000\000s\000\000\000\"\000\000\000\007\000\000\000\031\001\000\0001\006\000\000\003\000\000\000\000\000\000\000\351\020\000\000\003\000\000\000\231\000\000\000m\007\000\000\"\000\000\000\007\000\000\000z\001\000\000\004\000\000\000t\007\000\000\005\000\000\000\034\000\000\000\340\000\000\000i\002\000\000H\n\000\000\242\003\000\000\003\000\000\000\330\010\000\000\343\000\000\000\007\000\000\000:\000\000\000U\002\000\000\004\000\000\000\320\004\000\000\003\000\000\000\000\000\000\000\263\004\000\000\314\006\000\000\356\006\000\000\007\000\000\000^\003\000\000\020\000\000\000\n\000\000\000)\000\000\000\"\t\000\000k\000\000\000l\r\000\0002\020\000\000i\002\000\000\006\000\000\000\225\000\000\000\002\000\000\000\000\000\000\000\352\001\000\000\007\000\000\000\351\003\000\000\n\000\000\000#\000\000\000\"\000\000\000\007\000\000\000\351\003\000\000\n\000\000\000&\000\000\000\004\000\000\000\245\010\000\000b\010\000\000\007\000\000\000d\000\000\000!\001\000\000\n\000\000\000\025\000\000\0004\000\000\0003\020\000\000\001\000\000\000\231\000\000\000\352\001\000\000Q\000\000\000D\007\000\000\002\000\000\000\345\006\000\000\031\001\000\000\007\000\000\000\004\000\000\000a\006\000\0000\003\000\000\"\000\000\000\007\000\000\000\351\003\000\000\n\000\000\000\242\007\000\000\231\000\000\000\352\001\000\000Q\000\000\000D\007\000\000\002\000\000\000\345\006\000\000\031\001\000\000\007\000\000\000\004\000\000\000\367\003\000\000d\020\000\000\002\000\000\000U\002\000\000\n\000\000\000\023\r\000\000\034\000\000\000\340\000\000\000\022\000\000\000\216\010\000\000\277\010\000\000\002\000\000\000\007\000\000\000\303\n\000\0000\000\000\000K\000\000\000\264\006\000\000\003\000\000\000S\000\000\000/\010\000\000n\r\000\000,\000\000\000\313\016\000\000%\000\000\000H\000\000\000\002\000\000\000\007\000\000\000\017\000\000\000\002\000\000\000\000\000\000\000\340\000\000\000,\000\000\000S\000\000\000\261\004\000\000\n\000\000\000Q\000\000\000\026\000\000\000\235\002\000\000D\002\000\000\016\000\000\000\024\000\000\000\022\006\000\000\002\000\000\000\264\006\000\000\003\000\000\000\305\017\000\000,\000\000\000\270\r\000\000\020\000\000\000\004\000\000\000\224\020\000\000U\006\000\000g\000\000\000\216\006\000\000\'\000\000\000\024\000\000\000\367\001\000\000\206\007\000\000\003\000\000\000\312\016\000\000\264\006\000\000,\000\000\000\000\000\000\000W\r\000\000,\000\000\000g\017\000\000\003\000\000\000\361\013\000\000\240\005\000\000\037\000\000\000\000\000\000\000\356\000\000\000\206\007\000\000\001\000\000\000X\r\000\000Q\000\000\000\024\000\000\000\361\006\000\000\002\000\000\000\024\001\000\000\001\000\000\000\007\000\000\000Q\000\000\000+\000\000\000K\000\000\000\251\004\000\000\226\021\000\000\335\016\000\000\007\000\000\000;\000\000\000\334\016\000\000\001\000\000\000\216\002\000\000\000\000\000\000\031\021\000\000a\000\000\000\235\014\000\000\203\010\000\000\303\017\000\000\001\000\000\000t\n\000\000\355\005\000\000#\000\000\000\021\000\000\000E\010\000\000\025\014\000\000\001\000\000\000\264\007\000\000D\002\000\000\251\004\000\000\311\007\000\000\006\000\000\000\365\006\000\000\332\002\000\000,\000\000\000\344\016\000\000#\000\000\000S\000\000\000\003\000\000\000\000\000\000\000@\003\000\000\006\000\000\000\007\000\000\000\'\000\000\000,\000\000\000\206\013\000\0000\005\000\000\217\007\000\000\003\000\000\000\034\000\000\000;\003\000\0001\005\000\000\200\n\000\000\353\017\000\000,\000\000\000\336\006\000\000\002\000\000\000\000\000\000\000;\003\000\000,\000\000\000\321\006\000\000S\000\000\000t\007\000\000\217\007\000\000\216\000\000\000\310\000\000\000\270\003\000\000\007\000\000\000Q\000\000\000\244\003\000\000\222\005\000\000\003\000\000\000\034\000\000\000\340\000\000\000\242\007\000\000,\000\000\000)\000\000\000\211\007\000\000E\001\000\000,\000\000\000S\000\000\000K\000\000\000\261\004\000\000\"\000\000\000\007\000\000\000\201\002\000\000k\014\000\000\034\000\000\000\322\000\000\000\000\003\000\000\001\000\000\000\021\000\000\000K\000\000\000b\021\000\000\002\000\000\000\310\000\000\000c\016\000\000j\020\000\0000\005\000\000N\000\000\000\031\001\000\000\260\007\000\000\222\005\000\000\003\000\000\000\n\000\000\000C\001\000\000K\000\000\000u\003\000\000\034\000\000\000\351\010\000\000\006\000\000\000\007\000\000\000\'\000\000\000\024\000\000\000w\021\000\000\177\n\000\000,\000\000\000\354\017\000\000\000\000\000\000\340\000\000\000,\000\000\000\034\000\000\000\322\000\000\000\000\003\000\000o\003\000\000\007\000\000\000Q\000\000\000f\001\000\000\"\000\000\000\007\000\000\000\343\t\000\000\244\003\000\000\034\000\000\000\340\000\000\000\005\000\000\000\030\006\000\000\323\010\000\000*\013\000\000\331\013\000\000\256\017\000\000,\000\000\000\274\010\000\000\201\004\000\000D\002\000\000S\000\000\000\030\001\000\000\215\021\000\000#\000\000\000\n\014\000\000)\000\000\000\355\000\000\000\r\021\000\000\220\013\000\000,\000\000\000\025\010\000\000E\t\000\000\016\000\000\000N\000\000\000\037\000\000\000\273\000\000\000\017\000\000\000\024\n\000\000/\005\000\000\000\000\000\000;\003\000\000B\000\000\000\262\014\000\000\022\000\000\000\261\013\000\000L\021\000\000\001\000\000\000\334\002\000\000\026\n\000\000\\\007\000\000}\005\000\000K\000\000\000w\000\000\000\266\000\000\000\003\006\000\000)\000\000\000\000\000\000\000\337\n\000\000\003\000\000\000\000\000\000\000(\004\000\000\325\000\000\000\026\023\000\000\014\n\000\000\320\n\000\000\003\n\000\000\001\000\000\000n\023\000\000\004\n\000\000}\005\000\000Q\000\000\000\026\000\000\000\367\000\000\000\002\000\000\000\014\014\000\000.\021\000\000\003\006\000\000)\000\000\000\000\000\000\000\340\n\000\000\001\000\000\000\337\006\000\000}\005\000\000Q\000\000\000\026\000\000\000\367\000\000\000\002\000\000\000\000\006\000\000\025\010\000\000j\017\000\000,\000\000\000/\005\000\000\000\000\000\000\340\000\000\000Q\000\000\000\026\000\000\000Y\006\000\000\013\014\000\000)\000\000\000\000\000\000\000M\021\000\000\031\000\000\0000\000\000\000d\r\000\0007\000\000\000\301\001\000\000\305\n\000\000\233\007\000\000,\000\000\000\275\005\000\000\030\001\000\000)\000\000\000\000\000\000\000P\006\000\000\006\000\000\000\213\007\000\000\000\000\000\000\340\000\000\000\005\n\000\000\022\000\000\000\000\000\000\000x\005\000\000\020\000\000\000\366\016\000\000\025\000\000\000\236\000\000\000\355\000\000\000\021\021\000\000,\000\000\000/\005\000\000\007\000\000\000$\021\000\000,\000\000\000\303\002\000\000\002\000\000\000\334\000\000\000\276\010\000\000&\000\000\000c\006\000\000\031\000\000\0000\000\000\000\337\006\000\000\026\014\000\000\307\007\000\000,\000\000\000\264\007\000\000\004\000\000\0000\003\000\000\003\000\000\000\000\000\000\000\340\000\000\000\005\000\000\000a\000\000\000m\020\000\000\301\001\000\000\304\n\000\000\030\001\000\000+\004\000\000\005\000\000\000\233\007\000\000,\000\000\000K\000\000\000\275\005\000\000\274\010\000\000\344\r\000\0001\005\000\000I\003\000\000\000\000\000\000\340\000\000\000\320\004\000\000\001\000\000\000a\006\000\000%\021\000\000\003\000\000\000\034\000\000\000\322\000\000\000\000\003\000\000o\003\000\000\321\006\000\000\233\010\000\000\004\000\000\000\240\t\000\000`\017\000\000\307\007\000\000\002\000\000\000\000\000\000\000\310\000\000\000\003\000\000\0003\n\000\000\003\000\000\000\000\000\000\000\036\020\000\000\023\021\000\000\007\000\000\000z\007\000\000l\013\000\000\270\t\000\000\000\000\000\000e\010\000\000\007\000\000\000\305\002\000\000\300\000\000\000\002\000\000\000k\013\000\0004\000\000\000\254\n\000\000\352\022\000\000\"\000\000\000\007\000\000\000\251\000\000\000z\007\000\000\024\021\000\0000\000\000\000\000\t\000\000\022\000\000\000\226\007\000\000\377\010\000\000%\000\000\000\241\020\000\000\002\000\000\000\310\000\000\000\272\001\000\000\314\n\000\000\251\006\000\000i\002\000\000\000\000\000\000A\n\000\000\242\003\000\000@\003\000\000\014\001\000\000[\004\000\000\007\000\000\000K\006\000\000+\004\000\000\030\000\000\000S\017\000\000d\006\000\000\002\000\000\000\371\020\000\0004\000\000\000\225\n\000\000+\004\000\000\275\005\000\000\257\020\000\000\205\t\000\000!\001\000\0006\000\000\000\"\000\000\000\007\000\000\000\030\n\000\000\002\000\000\000\010\003\000\000\263\004\000\000s\000\000\000\"\000\000\000\007\000\000\000\251\000\000\000+\000\000\000\002\000\000\000\000\000\000\000\310\000\000\000B\016\000\000Y\n\000\000\005\014\000\000\005\000\000\000\360\017\000\000\217\001\000\000\317\021\000\000\224\017\000\000R\020\000\000E\t\000\000\350\003\000\0005\003\000\000m\004\000\000\000\t\000\000\257\003\000\000{\002\000\000a\017\000\000\001\000\000\000\264\000\000\000K\000\000\000\314\001\000\000\003\000\000\000\004\014\000\000\007\000\000\000:\000\000\000\232\000\000\000\003\000\000\000\263\004\000\000\000\001\000\000\026\000\000\000^\003\000\000\002\000\000\000\310\000\000\000\272\001\000\000\375\006\000\000\031\n\000\0003\007\000\000\251\006\000\000\025\n\000\000\322\000\000\000\000\003\000\000\020\000\000\000\350\003\000\0005\003\000\000M\r\000\0001\000\000\000\003\000\000\000D\000\000\000\005\000\000\0003\000\000\000%\000\000\000m\021\000\000\000\000\000\000\262\007\000\000g\r\000\000\003\000\000\000\224\000\000\000\035\000\000\000\003\000\000\000u\000\000\000\001\000\000\000\204\000\000\000\005\000\000\000\036\000\000\000\202\016\000\000\343\001\000\000\002\000\000\000\000\000\000\0009\001\000\000\003\000\000\000\000\000\000\000b\001\000\000\001\000\000\000\002\000\000\000\000\000\000\000(\000\000\000\236\001\000\000\003\000\000\000\000\000\000\000\351\000\000\000\001\000\000\000Z\000\000\000\014\000\000\000\030\000\000\000e\006\000\000#\000\000\000\233\014\000\000\255\020\000\000)\000\000\000\000\000\000\000o\001\000\000\003\000\000\0001\000\000\000\000\000\000\000t\000\000\000)\000\000\000\360\002\000\000\350\002\000\000?\004\000\000\251\002\000\000\231\016\000\000\003\000\000\000D\000\000\000\034\000\000\000E\001\000\000\022\000\000\000_\014\000\000\002\000\000\000/\000\000\000I\022\000\000\240\021\000\000t\022\000\000?\004\000\000\024\006\000\000\003\000\000\000\225\013\000\000\033\n\000\000\000\000\000\000x\002\000\000\003\000\000\000\200\002\000\0001\n\000\000\035\000\000\000\001\000\000\000!\000\000\0009\n\000\000\000\000\000\000\242\001\000\000\364\002\000\000<\n\000\000\000\000\000\000(\000\000\000R\001\000\000>\n\000\000\000\000\000\000(\000\000\000\014\003\000\000@\n\000\000\361\000\000\000\205\000\000\000C\n\000\000\000\000\000\000(\000\000\000\236\001\000\000D\n\000\000R\000\000\000F\000\000\000G\n\000\000~\000\000\000\243\000\000\000\034\n\000\000\216\000\000\000L\000\000\000\036\n\000\000\000\000\000\000O\004\000\000\003\000\000\000\000\000\000\0002\000\000\000 \n\000\000\000\000\000\000\013\001\000\000\323\000\000\000!\n\000\000\000\000\000\000\304\002\000\000s\002\000\000\"\n\000\000\307\000\000\000\240\003\000\000)\n\000\000\000\000\000\000M\000\000\000q\000\000\000*\n\000\000\000\000\000\0005\002\000\000U\000\000\000+\n\000\000\216\000\000\000\000\000\000\000M\000\000\000l\000\000\000,\n\000\000\000\000\000\000I\004\000\000\003\000\000\000T\000\000\000-\n\000\000 \001\000\000\353\003\000\000\000\000\000\000T\001\000\0002\n\000\000\004\000\000\000V\006\000\000\001\003\000\0004\n\000\000\000\000\000\0008\000\000\000j\000\000\0005\n\000\000\000\000\000\000\"\001\000\000>\000\000\0006\n\000\000\000\000\000\000(\000\000\000S\001\000\0007\n\000\000\203\001\000\000\251\t\000\000\327\000\000\000$\000\000\000\000\000\000\000x\002\000\000\002\000\000\000\200\002\000\000\244\000\000\000\000\000\000\000t\000\000\000q\000\000\000\003\000\000\000u\000\000\000P\001\000\000\005\000\000\000\000\000\000\000\212\004\000\000\230\005\000\000\003\000\000\000\013\000\000\000\373\002\000\000\374\004\000\000)\000\000\000\013\000\000\000I\002\000\000\003\000\000\000I\003\000\000<\000\000\000\004\000\000\000\013\002\000\000\003\000\000\000\000\000\000\000\236\000\000\000\304\000\000\000\214\000\000\000\003\000\000\000\000\000\000\000\003\002\000\000\003\000\000\000D\000\000\000\000\000\000\000\246\000\000\000\230\005\000\000\010\000\000\000\227\003\000\000\003\000\000\000\313\004\000\000\\\010\000\000\304\005\000\000\376\002\000\000\362\r\000\000\033\023\000\000\014\020\000\000\221\000\000\000\001\000\000\000?\000\000\000\000\000\000\000\241\023\000\000\307\013\000\000\376\000\000\000\002\000\000\000\000\000\000\000P\t\000\000/\004\000\000\000\000\000\000\241\017\000\000\017\000\000\000\014\000\000\000\305\001\000\000\036\000\000\000\336\001\000\000#\000\000\000\036\000\000\000\034\r\000\000\002\000\000\000\210\004\000\000\177\000\000\000\004\000\000\000\261\023\000\000\003\000\000\000\246\021\000\000\312\005\000\000\001\000\000\000S\016\000\000\003\000\000\000\220\001\000\000V\005\000\000\331\005\000\000,\000\000\000:\017\000\000\025\000\000\000\331\022\000\000~\004\000\000\031\000\000\000\364\001\000\000$\000\000\000\003\000\000\000\000\000\000\000\214\000\000\000-\000\000\000\005\004\000\000\004\000\000\000K\022\000\000\000\000\000\000\362\000\000\000\026\017\000\000\005\000\000\000\000\000\000\000\246\013\000\000,\000\000\000$\000\000\000-\000\000\000i\003\000\000\001\000\000\000O\014\000\000D\003\000\000\020\004\000\000\002\000\000\000\000\000\000\000(\006\000\000\003\000\000\000\004\000\000\000|\016\000\000\256\010\000\000)\000\000\000\004\000\000\000\325\002\000\000\001\000\000\000@\000\000\0001\000\000\000@\t\000\000\271\001\000\000\002\000\000\000m\000\000\000\013\000\000\000I\002\000\000\345\017\000\000\314\020\000\000\025\000\000\000\302\000\000\000\347\003\000\000C\001\000\000\000\000\000\000\312\005\000\000k\000\000\000\371\002\000\000\010\000\000\000m\001\000\000\007\020\000\000\006\023\000\000\000\000\000\000%\003\000\000\243\001\000\000\006\000\000\000\016\001\000\000\002\000\000\000\000\000\000\000y\005\000\000\260\003\000\000g\000\000\000\003\000\000\000\000\000\000\000\214\000\000\000\235\000\000\000\177\000\000\000\034\000\000\000\371\002\000\000>\r\000\000\000\000\000\000q\000\000\000\326\003\000\000\202\001\000\000\n\000\000\000\004\000\000\000\352\007\000\000\001\000\000\000)\020\000\000\013\000\000\000\006\004\000\000\234\000\000\000\017\000\000\000\"\000\000\000\322\020\000\000\020\000\000\000\n\000\000\000U\003\000\000\000\000\000\000%\001\000\000\003\000\000\000\013\000\000\000\201\001\000\000\001\000\000\000\330\003\000\000<\000\000\000\000\000\000\000N\000\000\000$\000\000\000\005\000\000\000\021\000\000\000\000\000\000\000\202\000\000\000\006\000\000\0001\000\000\000\374\001\000\000\002\000\000\000@\000\000\000h\000\000\000\000\000\000\000\243\001\000\000R\023\000\000\004\000\000\000k\002\000\000@\005\000\000\000\007\000\000\002\000\000\000\004\000\000\000 \001\000\000\034\005\000\000\001\000\000\000\017\000\000\000\000\000\000\0009\021\000\000\200\022\000\000\213\002\000\000\031\000\000\000\000\000\000\000\260\003\000\000?\000\000\000`\004\000\000#\000\000\000\000\000\000\000\030\003\000\000\207\000\000\000\303\000\000\000\007\002\000\000W\000\000\000\311\000\000\000\003\000\000\000u\000\000\000\001\000\000\000\013\000\000\000\212\005\000\000\224\000\000\000!\000\000\000F\001\000\000\030\000\000\000\177\002\000\000\005\000\000\000\201\006\000\000\223\001\000\000\r\020\000\0006\016\000\000\001\000\000\000\017\000\000\000\014\000\000\000\213\001\000\000h\000\000\000\000\000\000\000\035\001\000\000\032\002\000\000\003\000\000\000\000\000\000\000\246\000\000\000\014\000\000\000\312\003\000\000\001\000\000\000\231\013\000\000\017\000\000\000\t\016\000\000\017\000\000\000\"\000\000\000\014\000\000\000\030\000\000\000\024\000\000\000\000\000\000\000\236\000\000\000C\002\000\000\265\020\000\000\005\000\000\000\000\000\000\000\033\024\000\000\206\017\000\000\003\002\000\000\000\000\000\000I\002\000\000\003\000\000\000I\003\000\000\023\000\000\000\367\010\000\000\001\000\000\000\312\000\000\000\025\000\000\000\374\001\000\000\336\001\000\000\002\000\000\000\371\007\000\000\000\000\000\000\251\002\000\000W\000\000\000y\000\000\0001\000\000\000\226\000\000\000\340\007\000\000\025\000\000\0004\006\000\000p\002\000\000\002\000\000\000\371\007\000\000\013\000\000\000\374\007\000\000~\003\000\000f\000\000\000\203\000\000\000&\000\000\000\004\000\000\000\256\023\000\000\007\000\000\000\344\001\000\000 \000\000\000\035\000\000\000F\001\000\000!\000\000\000\001\000\000\000\t\000\000\000\030\000\000\000\277\006\000\000Z\000\000\000\027\000\000\000\000\001\000\000\240\002\000\000\000\000\000\000\226\001\000\000B\000\000\000\027\000\000\000\353\005\000\000\002\000\000\000\232\000\000\000\037\005\000\000\024\000\000\000Y\000\000\000\002\000\000\0004\000\000\000W\006\000\000\357\000\000\000\020\000\000\000\333\023\000\000\037\000\000\000\027\000\000\000\314\000\000\000\000\000\000\000\253\002\000\000\001\000\000\000j\006\000\000\020\003\000\000\221\000\000\000\001\000\000\000\027\000\000\000\226\000\000\000\037\000\000\000\215\r\000\000\255\001\000\000\204\000\000\000\006\000\000\000G\000\000\000d\001\000\000\022\000\000\0005\013\000\000\021\000\000\000\010\016\000\000\020\000\000\000\000\000\000\000\253\002\000\000T\003\000\000\004\000\000\000\374\023\000\000\003\000\000\000.\000\000\000\331\000\000\000\026\003\000\000I\001\000\000\004\000\000\000n\007\000\000\343\001\000\000#\000\000\000\000\000\000\000\026\r\000\000(\002\000\000\016\000\000\000\t\000\000\000\251\000\000\000\363\003\000\000\027\000\000\000\030\000\000\000\207\000\000\000J\003\000\000&\000\000\000\000\000\000\000i\000\000\000\007\000\000\000%\000\000\000\236\000\000\000\321\t\000\000 \000\000\0001\000\000\000\000\000\000\000\313\001\000\000\001\000\000\000\016\001\000\000\032\000\000\000r\000\000\000\000\000\000\000\230\005\000\000\002\000\000\000\013\000\000\000\032\006\000\000\315\004\000\000\347\005\000\000\035\000\000\000\314\000\000\000\000\000\000\000\212\003\000\000\003\000\000\000\013\000\000\000\252\016\000\000\016\000\000\000!\000\000\000<\017\000\000\026\007\000\000,\017\000\000g\000\000\000\003\000\000\000\000\000\000\000I\002\000\000\r\000\000\000}\000\000\000\031\007\000\000\230\006\000\000\025\000\000\000\337\003\000\000\001\000\000\000L\001\000\000\032\000\000\000\021\000\000\000\311\005\000\000\006\000\000\000\r\000\000\000\010\000\000\000\036\000\000\000\201\001\000\000B\000\000\000\031\000\000\000J\001\000\000\r\000\000\000\240\004\000\0001\000\000\000\001\000\000\000\035\000\000\000\005\000\000\000\000\000\000\000\315\004\000\000k\016\000\000\r\000\000\000\272\000\000\000\032\000\000\000\230\006\000\0008\003\000\000v\000\000\000\000\000\000\000X\007\000\000\003\000\000\000\000\000\000\000\021\001\000\000\001\000\000\000Z\000\000\000\002\000\000\000_\000\000\000\032\000\000\000[\000\000\000\335\001\000\000\001\000\000\000U\004\000\000<\000\000\000\325\000\000\000\014\000\000\000\030\000\000\000\305\002\000\000\000\000\000\000w\016\000\000\001\000\000\000\236\000\000\000U\004\000\000\345\002\000\000\005\000\000\000\021\000\000\000\000\000\000\000\277\002\000\000\034\000\000\000\232\004\000\000W\000\000\000\003\000\000\000\225\001\000\000\016\000\000\000\n\000\000\000y\001\000\000\231\004\000\000!\000\000\000X\000\000\000t\010\000\000\037\000\000\000\000\000\000\000b\000\000\000\233\000\000\000\213\001\000\000o\000\000\000\002\000\000\000\004\000\000\000\326\000\000\000\363\001\000\000&\000\000\0003\000\000\000\010\000\000\000\027\006\000\000\376\000\000\000\203\001\000\000M\000\000\000E\001\000\000\003\000\000\000\250\002\000\000\034\000\000\000E\001\000\000\022\000\000\000$\000\000\000\003\000\000\000\000\000\000\000H\016\000\000B\023\000\000\005\000\000\000u\000\000\000\001\000\000\000\000\000\000\000q\000\000\000\014\021\000\000\n\000\000\000[\000\000\000\371\005\000\000w\000\000\000S\000\000\000\003\000\000\000\013\000\000\000\231\002\000\000\350\020\000\000\006\000\000\000\022\000\000\000\000\000\000\000k\001\000\000\n\000\000\000\022\000\000\000\316\005\000\000\000\007\000\000\002\000\000\000\000\000\000\000\326\000\000\000\035\001\000\000\363\001\000\000)\000\000\000\206\001\000\000\003\000\000\000\032\001\000\000\221\013\000\000\001\000\000\000\273\002\000\0001\000\000\000\017\006\000\0009\001\000\000\r\000\000\000{\017\000\000\000\000\000\000M\000\000\000E\001\000\000\251\001\000\000\025\000\000\0009\002\000\000\006\006\000\000\203\020\000\000\001\000\000\0004\007\000\000\000\000\000\000&\017\000\000\272\021\000\000\276\003\000\000\005\000\000\000\013\000\000\000\313\002\000\000\t\000\000\000\'\000\000\000\024\000\000\000[\002\000\000?\000\000\000\022\000\000\000S\000\000\000\231\002\000\000\216\001\000\000\005\000\000\000S\000\000\000\003\002\000\000\002\000\000\000\324\013\000\000\025\000\000\000\000\000\000\000\352\003\000\000;\013\000\000&\000\000\000\000\000\000\000\206\020\000\000\003\000\000\0003\000\000\000%\000\000\000\235\003\000\000\270\000\000\000\270\010\000\000\004\000\000\000\352\003\000\000\003\000\000\000\264\000\000\000\256\007\000\000\006\000\000\000\216\004\000\000\005\000\000\000S\000\000\000\020\001\000\000\003\000\000\000\000\000\000\000\356\t\000\000\031\000\000\000\002\002\000\000\000\000\000\000\275\001\000\000\n\000\000\000\216\004\000\000\001\000\000\000\000\000\000\000\250\002\000\000%\000\000\000\371\000\000\000W\023\000\000\325\000\000\000\n\003\000\000\014\000\000\000\'\000\000\000\024\000\000\000\031\001\000\000\017\000\000\000\230\000\000\000}\007\000\000\017\000\000\000$\000\000\000*\000\000\000$\001\000\000\016\000\000\000#\001\000\000\201\017\000\000\003\000\000\000\366\000\000\000\352\005\000\000\001\000\000\000\037\000\000\000\000\000\000\000\250\002\000\000+\000\000\000\002\000\000\000\026\000\000\000m\005\000\000,\000\000\000s\000\000\000\203\001\000\000M\000\000\000E\001\000\000*\000\000\000\024\000\000\000\216\002\000\000\032\000\000\000\021\000\000\0001\000\000\000\235\000\000\000\031\000\000\000\000\000\000\000\250\002\000\000=\001\000\000\364\001\000\000\014\001\000\000\\\004\000\000\001\000\000\000\204\000\000\000\273\002\000\000\r\000\000\000|\003\000\000\000\000\000\000\313\001\000\000\227\002\000\000\002\000\000\000\265\000\000\000\005\000\000\000\000\000\000\000E\001\000\000\001\000\000\000m\000\000\0006\000\000\000\010\000\000\000u\016\000\000S\r\000\000\024\000\000\000\211\000\000\000\010\000\000\000\334\010\000\000v\000\000\000\000\000\000\000\202\000\000\000\003\000\000\000u\000\000\0003\000\000\000\022\000\000\000\026\003\000\0009\006\000\000\001\000\000\000u\023\000\000\016\000\000\000#\023\000\000!\000\000\000\272\000\000\000\352\000\000\0003\000\000\000\232\004\000\000\013\000\000\000\303\003\000\000\000\000\000\000\270\010\000\000B\010\000\000\030\000\000\000\250\n\000\000&\000\000\000\000\000\000\000\204\020\000\000s\000\000\000y\000\000\000\r\000\000\000\235\000\000\000\034\000\000\000\022\000\000\000\333\005\000\000\r\000\000\000\026\001\000\000\\\000\000\000\007\000\000\000\344\001\000\000W\000\000\000\006\000\000\000?\000\000\000\030\000\000\000J\000\000\000\005\000\000\0004\000\000\000\202\000\000\000\003\000\000\000D\000\000\000\t\001\000\0002\000\000\000A\001\000\000\213\000\000\000W\000\000\000%\001\000\000\002\000\000\000\013\000\000\000\374\003\000\000\t\000\000\000P\000\000\000\006\000\000\000&\000\000\000\245\002\000\000\016\024\000\000\034\006\000\000\003\000\000\000\000\000\000\000\202\000\000\000\003\000\000\000D\000\000\000?\000\000\000\022\000\000\000\004\000\000\000\317\000\000\000\036\006\000\000\376\t\000\000\016\000\000\0006\000\000\000\000\000\000\0002\000\000\000%\000\000\000n\000\000\000\t\000\000\000\'\000\000\000\024\000\000\000P\000\000\0000\000\000\000$\000\000\000\t\000\000\000P\000\000\000\201\000\000\000\232\001\000\000m\001\000\000\032\000\000\000,\000\000\0007\001\000\000\003\000\000\000\032\000\000\000\000\000\000\000\253\000\000\000\357\000\000\000\022\000\000\000\001\n\000\000\031\000\000\000\000\000\000\000\025\005\000\0003\002\000\000\003\000\000\000\000\000\000\000\206\002\000\000\264\001\000\000\025\000\000\000\000\000\000\000\306\021\000\000\307\016\000\000a\004\000\000&\000\000\000$\000\000\000\321\000\000\000\001\000\000\000\000\000\000\000s\010\000\000\003\000\000\000\212\010\000\000&\000\000\000\335\000\000\000\321\000\000\000\006\000\000\000\022\000\000\000\004\000\000\000\020\001\000\000\003\000\000\000\000\000\000\000\202\000\000\000\003\000\000\000D\000\000\000\003\000\000\0003\000\000\000\t\000\000\000P\000\000\000X\000\000\000b\000\000\000\t\000\000\000?\002\000\0000\000\000\000$\000\000\0004\002\000\000\225\002\000\000\211\000\000\000v\000\000\000\n\000\000\000\237\007\000\000\034\002\000\000I\001\000\000\000\000\000\0002\000\000\000\210\t\000\000\246\001\000\000!\000\000\000\016\000\000\000\000\000\000\000E\001\000\000\316\021\000\000\377\t\000\0002\000\000\000\003\000\000\000D\000\000\000+\000\000\000\372\000\000\000\253\001\000\000&\000\000\000\000\000\000\000A\000\000\000\003\000\000\000u\000\000\000\001\000\000\000?\000\000\000\022\000\000\000G\002\000\000\002\000\000\000\026\000\000\000\314\005\000\000\001\000\000\000\211\000\000\000d\002\000\000\017\000\000\000\000\000\000\000\214\021\000\000\022\000\000\000\006\000\000\000\021\000\000\000\000\000\000\000E\001\000\000r\006\000\000x\000\000\000\035\000\000\000\264\000\000\000\276\002\000\000 \000\000\000\204\000\000\000\001\000\000\000\035\000\000\000\001\000\000\0001\000\000\000F\001\000\000\235\000\000\000\031\000\000\000\000\000\000\000\352\003\000\000\001\000\000\000\364\000\000\000\373\004\000\000\001\000\000\000\261\020\000\000\242\000\000\000\017\001\000\000\244\000\000\000 \000\000\000W\000\000\0009\000\000\000%\000\000\000\000\000\000\000A\000\000\000\t\000\000\000u\013\000\0004\000\000\000J\002\000\000\213\005\000\000\000\000\000\000q\000\000\000\240\000\000\000=\000\000\000\t\000\000\000\237\000\000\000+\000\000\0007\001\000\000\003\000\000\000\215\000\000\000\207\001\000\000+\000\000\000\t\000\000\000\232\001\000\0007\001\000\000\000\000\000\0002\000\000\000 \006\000\000\005\000\000\000\000\000\000\000t\004\000\000_\007\000\000\003\000\000\000D\000\000\000%\000\000\000\276\003\000\000\230\000\000\0003\003\000\000K\023\000\000\003\000\000\000\021\001\000\000\001\000\000\000\266\000\000\0009\000\000\000\237\000\000\000\205\001\000\000\036\000\000\000\331\000\000\000\226\005\000\000\001\000\000\000\237\000\000\000%\000\000\000|\003\000\000)\000\000\000\266\000\000\000#\000\000\000G\000\000\000\220\r\000\000\020\001\000\000\003\000\000\000u\000\000\000*\006\000\000%\000\000\000\270\002\000\000\002\000\000\000C\000\000\000f\001\000\000\"\000\000\000\007\000\000\000\037\000\000\000\202\014\000\000\t\000\000\000:\000\000\000\315\003\000\000r\000\000\000/\000\000\000W\001\000\000\003\000\000\000o\001\000\000\352\000\000\000\003\000\000\000\000\000\000\0002\000\000\000\001\000\000\000\000\000\000\000A\000\000\000\t\000\000\000$\001\000\000\007\000\000\000\037\024\000\000\007\001\000\000\035\000\000\000$\t\000\000\007\000\000\000\026\002\000\000\244\000\000\000\"\000\000\000]\000\000\000%\000\000\000D\000\000\000J\000\000\000\014\000\000\000%\000\000\000/\000\000\000\013\004\000\000\001\000\000\000\t\000\000\000w\001\000\000\367\001\000\000S\000\000\000\305\023\000\000,\000\000\000\245\006\000\000\005\000\000\000\000\000\000\000\202\000\000\000\t\000\000\000\332\004\000\000\"\000\000\000\t\000\000\000:\000\000\000E\006\000\000\033\001\000\000\n\000\000\000X\000\000\000\301\000\000\0004\000\000\000J\002\000\000 \000\000\000\000\000\000\000\313\001\000\000\t\000\000\000;\000\000\000\354\000\000\000\002\000\000\000`\000\000\000g\000\000\000\274\001\000\000\002\000\000\000\375\007\000\000\007\000\000\000\212\001\000\000Y\r\000\000C\000\000\000\020\000\000\000\004\000\000\000\217\001\000\000y\000\000\000\t\000\000\000\361\010\000\000\002\000\000\000/\000\000\000\247\000\000\000\003\000\000\000(\000\000\000\001\000\000\000o\001\000\000Q\000\000\000\t\000\000\000V\000\000\000\025\000\000\000\007\000\000\000x\000\000\000\204\000\000\000\231\007\000\000\346\000\000\000\010\021\000\000\010\000\000\000\000\000\000\000\023\002\000\000\n\000\000\000-\000\000\000Y\t\000\000\000\000\000\000~\005\000\000\002\000\000\000+\000\000\000t\001\000\000_\003\000\000\037\000\000\0001\000\000\000z\017\000\0008\001\000\000\005\000\000\000\013\000\000\000\331\000\000\000\247\000\000\000\003\000\000\000(\000\000\000\001\000\000\000!\000\000\000\001\000\000\000\035\000\000\000\031\003\000\0007\006\000\000\020\000\000\000\013\000\000\000\002\000\000\000\203\000\000\000O\000\000\000{\000\000\000\005\000\000\000v\000\000\000k\000\000\000\353\002\000\0001\000\000\000F\005\000\000\240\001\000\000\352\002\000\000\001\000\000\000w\003\000\0004\000\000\000J\002\000\000\r\000\000\000 \000\000\000\002\000\000\000W\000\000\000\000\000\000\0002\000\000\000\237\001\000\000&\000\000\000\004\000\000\000(\000\000\000\236\001\000\000\005\000\000\000\004\000\000\000M\000\000\000E\000\000\000\020\000\000\000\006\000\000\000k\001\000\000<\000\000\000\254\000\000\000\000\000\000\0002\000\000\000q\007\000\000\005\000\000\000(\000\000\000<\000\000\000\t\000\000\000:\000\000\000\315\003\000\000b\000\000\000v\000\000\000\032\000\000\000\200\003\000\000\t\000\000\000y\001\000\000P\000\000\000?\000\000\000\010\000\000\000\004\000\000\000E\000\000\000\005\000\000\000\006\000\000\000\020\001\000\000\003\000\000\000u\000\000\000\026\001\000\000\035\000\000\000\000\000\000\000\034\006\000\000/\t\000\000\004\000\000\000\233\021\000\000\335\004\000\000r\000\000\000\000\000\000\000\253\000\000\000\264\001\000\000\016\000\000\0000\000\000\000E\000\000\000\006\000\000\000\022\000\000\000\254\000\000\000\000\000\000\000\352\001\000\0009\000\000\000H\000\000\000\000\000\000\000\034\006\000\000\237\000\000\000\023\000\000\000|\003\000\000\006\000\000\000\020\001\000\000\003\000\000\000\000\000\000\000\264\001\000\000\251\003\000\000\000\000\000\000q\000\000\000\000\000\000\000E\000\000\000\225\006\000\000\022\000\000\000\023\004\000\000\001\000\000\000\005\000\000\000\000\000\000\000E\000\000\000\022\000\000\000k\000\000\000>\000\000\000<\000\000\000\004\000\000\000(\000\000\000\236\001\000\000<\000\000\000\001\000\000\000&\000\000\000\006\000\000\000>\000\000\000\237\001\000\000\000\000\000\000J\000\000\000\t\001\000\000\000\000\000\0002\000\000\0006\000\000\000%\000\000\000\014\000\000\000n\000\000\000\375\000\000\000\000\000\000\000\311\000\000\000\003\000\000\000D\000\000\000/\000\000\000(\000\000\000w\001\000\000\242\000\000\000C\000\000\000\333\000\000\000\213\005\000\000\244\000\000\000\020\000\000\000\000\000\000\000(\000\000\000\003\000\000\000\000\000\000\0002\000\000\000\003\021\000\000t\001\000\000\340\003\000\000\003\000\000\000\036\000\000\0005\003\000\000O\003\000\000u\001\000\000v\000\000\000\032\000\000\000\000\000\000\000A\000\000\000d\000\000\000\344\001\000\000\"\000\000\000_\002\000\000\374\000\000\000\002\000\000\000\r\001\000\000\000\000\000\000\351\000\000\000\033\002\000\000!\000\000\000M\001\000\000\365\000\000\0001\000\000\000b\006\000\000\016\000\000\000\t\000\000\000:\000\000\000`\000\000\000b\000\000\000\274\001\000\000\342\013\000\000\000\000\000\000b\001\000\000\201\002\000\000\014\000\000\000%\000\000\000J\000\000\0009\000\000\000\035\010\000\000\004\000\000\000\205\000\000\000f\000\000\000V\022\000\000\003\000\000\000\000\000\000\000E\000\000\000\003\000\000\000\000\000\000\0002\000\000\000\000\000\000\000\205\000\000\000\201\000\000\000a\t\000\000\375\003\000\000\001\000\000\000\004\000\000\000)\007\000\000\222\004\000\000\236\t\000\000n\000\000\000\004\000\000\000\217\003\000\000\001\000\000\000\005\000\000\000\034\000\000\000q\002\000\000\000\000\000\000A\000\000\000+\000\000\000\036\000\000\000\230\007\000\000\014\000\000\000\334\000\000\000%\000\000\000\227\017\000\000\355\t\000\000\001\000\000\000\026\003\000\000:\001\000\000\002\000\000\000p\001\000\000\001\000\000\000\367\001\000\0000\000\000\000$\000\000\000#\000\000\000\340\003\000\000\002\000\000\000\027\003\000\000\032\000\000\000\t\000\000\000+\000\000\000\226\002\000\000\006\000\000\000\000\000\000\000A\000\000\000Z\003\000\000v\000\000\000$\000\000\000\013\002\000\000J\000\000\000<\000\000\000V\003\000\000j\002\000\000\001\000\000\000+\003\000\000<\000\000\000y\000\000\000\000\000\000\0002\000\000\000Z\003\000\000f\000\000\000$\000\000\000\013\002\000\000\001\000\000\000$\000\000\0006\000\000\000\\\000\000\000\014\000\000\000d\003\000\000R\n\000\000\001\000\000\000\370\000\000\000\'\000\000\000\014\000\000\000$\001\000\000\002\000\000\000\r\001\000\000$\000\000\000\335\000\000\000\010\000\000\000\307\000\000\000\345\000\000\000T\002\000\000\t\000\000\000w\001\000\000\242\000\000\0004\000\000\000\322\003\000\000\333\000\000\000 \000\000\0001\000\000\000\016\000\000\000m\000\000\000\221\000\000\000\337\000\000\000\204\000\000\000I\001\000\000\257\001\000\000\000\000\000\000F\002\000\000\020\000\000\000t\001\000\000\016\000\000\0001\000\000\000\001\000\000\000\000\000\000\000I\000\000\000\002\000\000\000\302\000\000\000(\000\000\000\005\000\000\000\000\000\000\000\202\000\000\000\003\000\000\000u\000\000\000\037\000\000\000\"\000\000\000]\000\000\000\207\000\000\000\001\001\000\000J\000\000\000%\000\000\000\230\017\000\000\014\000\000\000%\000\000\000%\007\000\000\000\000\000\000F\002\000\000\001\000\000\000\372\002\000\000\002\000\000\000\026\000\000\000c\003\000\000\035\000\000\000\t\003\000\000\177\000\000\000\013\000\000\000b\000\000\000\201\001\000\000\266\000\000\0009\000\000\000\'\000\000\000\024\000\000\000P\000\000\000C\000\000\000,\000\000\000/\000\000\000\016\006\000\000\r\000\000\000\252\002\000\000w\001\000\000\026\000\000\000\250\003\000\000\002\000\000\000\347\000\000\000/\000\000\000K\001\000\000\"\000\000\000\027\000\000\000P\000\000\000\252\000\000\000\003\000\000\000\000\000\000\0002\000\000\000,\000\000\000\000\000\000\000b\001\000\000\n\000\000\000\022\000\000\000G\002\000\000\006\000\000\000\014\000\000\000P\000\000\000\252\000\000\000\003\000\000\0005\000\000\000\016\000\000\000\014\000\000\000\372\002\000\000\002\000\000\000\344\001\000\000W\000\000\000\001\000\000\000\027\000\000\000\372\002\000\000\002\000\000\000P\000\000\000\356\023\000\000\374\000\000\000\002\000\000\000\242\000\000\000\215\000\000\000\001\000\000\000Z\000\000\000%\000\000\000\027\000\000\000\374\000\000\000\002\000\000\000_\000\000\000\032\000\000\000\025\007\000\000\333\000\000\000\350\000\000\000W\000\000\000\022\000\000\0006\000\000\000\t\000\000\000p\000\000\000=\000\000\000S\004\000\0006\000\000\000-\000\000\000\007\000\000\000l\n\000\0001\000\000\000\000\000\000\000q\000\000\000\314\000\000\000\004\000\000\000b\000\000\000\225\000\000\000\002\000\000\000/\003\000\000\034\000\000\000\313\010\000\000\222\000\000\000\r\000\000\000H\000\000\000\023\002\000\000@\000\000\000\r\000\000\000\022\001\000\000\023\000\000\000\007\000\000\000\024\000\000\000\226\002\000\000\003\000\000\000\000\000\000\000]\r\000\000\003\000\000\000\000\000\000\000A\000\000\000\001\000\000\000\000\000\000\000\351\000\000\000r\000\000\000/\000\000\000E\001\000\000\003\000\000\000\\\021\000\000\007\000\000\000-\000\000\000\237\000\000\000+\000\000\000\357\t\000\000v\000\000\000\032\000\000\000,\000\000\000\036\000\000\000\311\010\000\000\365\000\000\000\"\000\000\000\007\000\000\000\233\010\000\0000\000\000\000\216\003\000\000\002\000\000\000]\000\000\000;\006\000\000\007\000\000\000Q\000\000\000\237\000\000\0006\001\000\000\003\000\000\000\032\000\000\000{\000\000\000\016\000\000\000\006\000\000\000\034\003\000\000\026\000\000\000\024\002\000\000\372\000\000\000\035\000\000\000\t\000\000\000p\000\000\000\311\000\000\000\003\000\000\000\021\000\000\000\000\000\000\000\202\000\000\000\003\000\000\000u\000\000\0003\000\000\000\332\016\000\000\000\000\000\000\206\002\000\000\264\001\000\000\000\000\000\000W\006\000\000\264\001\000\000\000\000\000\000\272\006\000\000\357\000\000\000\001\000\000\000\000\000\000\000\332\003\000\000\264\001\000\000\017\000\000\000\263\000\000\000\017\000\000\000\000\000\000\000\271\000\000\000(\002\000\000\001\000\000\000\270\000\000\000\000\000\000\000\224\000\000\000\003\000\000\000\034\000\000\000\003\002\000\000\n\000\000\000\022\000\000\000/\000\000\000\200\002\000\000\002\000\000\000_\000\000\000\021\000\000\000/\000\000\000J\000\000\000<\000\000\000#\004\000\000\014\000\000\000Q\000\000\000\026\000\000\000<\000\000\000\335\001\000\000\001\000\000\000T\004\000\000\001\000\000\000\002\000\000\000\370\003\000\000\036\000\000\000\270\014\000\000\001\000\000\000:\001\000\000\032\000\000\000#\000\000\000\310\010\000\000\365\000\000\000y\000\000\000\000\000\000\0002\000\000\000\001\000\000\000A\000\000\000Q\000\000\000\024\000\000\000P\000\000\000C\000\000\000,\000\000\000\006\000\000\000\t\000\000\000p\000\000\000\036\000\000\000\313\003\000\000\334\004\000\000\t\000\000\000=\000\000\000P\000\000\000\006\000\000\000\014\000\000\000\035\010\000\000/\000\000\0002\010\000\000\001\000\000\000%\000\000\000/\000\000\000r\003\000\000\037\000\000\000\t\000\000\000-\000\000\000\024\000\000\000\026\000\000\0004\003\000\000/\000\000\000\200\002\000\000\"\000\000\000\t\000\000\000g\001\000\000\200\000\000\000#\000\000\000\032\000\000\000\001\000\000\000/\004\000\000\032\000\000\000\002\000\000\000\r\001\000\000\317\001\000\000\004\000\000\000=\003\000\000W\000\000\000\322\013\000\000!\000\000\000\203\003\000\000c\001\000\000\002\000\000\000V\000\000\000h\000\000\000\002\000\000\000\000\000\000\000\206\002\000\000\357\000\000\000\001\000\000\000_\000\000\000]\000\000\000J\000\000\000\025\007\000\000p\001\000\000\001\000\000\000_\000\000\000h\000\000\000\036\000\000\000\311\010\000\000\016\000\000\000Z\000\000\000%\000\000\000\007\000\000\000\374\000\000\000\002\000\000\000\'\000\000\000\n\000\000\000\006\000\000\000\022\000\000\0006\000\000\000\022\000\000\000V\006\000\000C\000\000\000!\002\000\0004\000\000\000J\002\000\000 \000\000\000\000\000\000\000q\000\000\000\n\000\000\000Q\000\000\000\026\000\000\000Y\004\000\000\020\000\000\000\007\000\000\000\002\000\000\000V\000\000\0007\000\000\000\266\000\000\000\001\001\000\000 \014\000\000^\000\000\000\000\000\000\000J\000\000\000%\000\000\000E\006\000\000\314\007\000\000\001\000\000\000\303\t\000\000\t\000\000\000p\000\000\000\024\000\000\000=\005\000\000 \000\000\000W\000\000\000\025\000\000\000\004\000\000\000\256\002\000\000\000\n\000\000\004\000\000\000T\002\000\000\003\000\000\000\270\000\000\000\374\t\000\000\270\n\000\000!\000\000\000\003\000\000\000\332\001\000\000\027\000\000\000P\000\000\000\202\003\000\000\004\000\000\000\307\005\000\000\001\000\000\000\305\000\000\000\026\000\000\000.\010\000\000,\000\000\000\271\016\000\000\001\000\000\000\027\000\000\000P\000\000\000\203\003\000\000\004\000\000\000\016\002\000\000\003\000\000\000(\000\000\000\003\000\000\0004\000\000\000\331\000\000\000\002\000\000\000\033\001\000\000\007\000\000\000&\003\000\000\035\000\000\000\330\002\000\000\005\000\000\000\213\006\000\000\003\000\000\000\021\000\000\000\034\000\000\000\203\003\000\000Y\000\000\000\005\000\000\000d\002\000\000B\004\000\000&\000\000\000,\004\000\000\003\000\000\000\254\001\000\000\274\005\000\000\001\000\000\000\n\000\000\000\356\002\000\000\363\000\000\000\020\000\000\000\000\000\000\000\311\000\000\000\003\000\000\000\021\000\000\000D\000\000\000\002\000\000\000R\002\000\0008\001\000\000\005\000\000\000\265\001\000\000M\001\000\000\t\000\000\000\377\000\000\000\026\000\000\000\005\000\000\0000\000\000\000\265\001\000\000\031\000\000\000V\001\000\000\350\000\000\000W\000\000\000\025\000\000\000\004\000\000\000b\000\000\000\246\004\000\000\007\000\000\000\016\020\000\000\301\003\000\000\241\003\000\000\204\000\000\000\020\000\000\000$\000\000\000\000\001\000\000N\000\000\000\301\003\000\000\267\004\000\000u\003\000\000\001\000\000\000\027\000\000\000\'\000\000\000\024\000\000\000P\000\000\000\006\000\000\000\000\000\000\0002\000\000\000\001\000\000\000A\000\000\000%\000\000\000\254\001\000\000J\000\000\000,\000\000\000/\000\000\0009\003\000\000M\001\000\000\014\000\000\000-\000\000\000\026\000\000\000t\000\000\000\001\000\000\000n\017\000\000\002\000\000\000k\001\000\000!\000\000\000\022\000\000\000\024\002\000\0004\000\000\000J\002\000\000\370\001\000\000\000\000\000\000q\000\000\000\n\000\000\000\022\000\000\000\253\t\000\000\027\000\000\000P\000\000\000\252\000\000\000\003\000\000\000]\000\000\000t\004\000\000r\003\000\0007\002\000\000\006\000\000\000\014\000\000\000L\003\000\000\002\000\000\000\r\001\000\000$\000\000\000\355\006\000\000\001\000\000\000+\000\000\000\004\000\000\000(\003\000\000\210\n\000\000\003\000\000\000(\000\000\000+\001\000\000\031\000\000\000\036\000\000\000\n\001\000\000\231\000\000\000\345\002\000\000\'\000\000\000\024\000\000\000n\000\000\000\002\000\000\000\262\022\000\000\002\000\000\000\001\017\000\000\001\000\000\000\014\000\000\000%\000\000\000[\000\000\000G\002\000\000\002\000\000\000\352\010\000\0004\000\000\000%\001\000\000C\001\000\000\032\000\000\000w\000\000\000\002\000\000\000U\002\000\000\007\000\000\000\t\006\000\000\001\000\000\000<\016\000\000\017\000\000\000\022\000\000\0004\000\000\000\226\007\000\000\"\000\000\000\007\000\000\000\023\000\000\000k\000\000\0003\004\000\000\002\000\000\000\313\000\000\000\025\000\000\000\024\001\000\000\255\001\000\000\204\000\000\000\n\000\000\000\034\003\000\000\026\000\000\000\037\000\000\000$\002\000\000\016\000\000\000?\000\000\000\356\002\000\000\231\000\000\000\004\000\000\000\216\001\000\000\017\000\000\000k\000\000\0003\004\000\000\005\000\000\000\021\000\000\000D\000\000\000\t\000\000\000+\000\000\000$\000\000\000F\t\000\000 \000\000\000\035\000\000\000A\001\000\000\000\000\000\000?\022\000\000\025\000\000\000\000\000\000\000E\003\000\000\345\023\000\000\016\000\000\000\360\005\000\0002\002\000\000\373\t\000\000\003\000\000\000.\000\000\000`\016\000\000\001\000\000\000\237\000\000\000w\017\000\000\n\000\000\000|\000\000\000\262\000\000\000\203\016\000\000\361\003\000\000\356\001\000\000w\000\000\000\r\001\000\000\001\000\000\000$\000\000\000F\t\000\000s\000\000\000\"\000\000\000\033\000\000\000\030\000\000\000M\013\000\000]\001\000\000\'\000\000\000\211\000\000\000\257\001\000\000\207\000\000\000\013\002\000\000\001\000\000\000$\000\000\000A\000\000\000\001\000\000\0002\000\000\0006\000\000\000#\001\000\000/\000\000\000\204\002\000\000-\000\000\000\007\000\000\000\367\004\000\000\375\000\000\000\035\000\000\000\t\000\000\000k\n\000\000\007\000\000\000\002\000\000\000\010\003\000\000\000\000\000\000I\000\000\000\003\000\000\000D\000\000\000\002\000\000\000\215\000\000\000\001\000\000\000\210\000\000\000e\000\000\000\350\016\000\000\032\000\000\000\006\000\000\000\n\000\000\000\022\000\000\000\257\001\000\000\000\000\000\000K\001\000\000\003\000\000\000D\000\000\000\002\000\000\000\313\005\000\000\001\000\000\000\006\000\000\000\007\000\000\000\n\001\000\000\032\000\000\000\002\000\000\000\370\003\000\000\036\000\000\000\202\007\000\000\001\000\000\000r\002\000\000\204\002\000\000`\003\000\0001\000\000\000\210\000\000\000\000\000\000\000I\000\000\000\242\000\000\000\032\000\000\000\014\000\000\000;\000\000\000\026\000\000\000c\003\000\000\"\000\000\000\014\000\000\000[\006\000\000\002\000\000\000\347\000\000\000\000\000\000\000*\002\000\000\003\000\000\000\000\000\000\000\224\000\000\000\003\000\000\000\021\000\000\000\000\000\000\000\202\000\000\000\003\000\000\000D\000\000\000\035\000\000\000\346\004\000\000\013\000\000\000\362\005\000\000\002\000\000\000\000\006\000\000\006\000\000\000\000\000\000\000;\005\000\000\010\000\000\000\024\000\000\000\002\000\000\000\013\000\000\000\r\t\000\000\"\000\000\000\014\000\000\000g\021\000\0006\000\000\000@\000\000\000\r\000\000\000x\000\000\000\t\000\000\000\000\001\000\000\026\000\000\000\334\003\000\000\002\000\000\000\'\002\000\000O\000\000\000/\000\000\000\007\023\000\000\001\000\000\000b\003\000\000\215\000\000\000\001\000\000\000\006\000\000\000-\000\000\000\026\000\000\000k\000\000\000\023\005\000\000\001\000\000\000\331\002\000\000\216\001\000\000\002\000\000\000\'\000\000\000\t\000\000\000p\000\000\000\262\000\000\000\n\000\000\000-\000\000\000\026\000\000\0003\001\000\000\020\000\000\000C\000\000\000\002\000\000\000V\000\000\000\244\020\000\000\006\001\000\000k\000\000\0003\004\000\000\001\000\000\000o\002\000\000N\000\000\000\025\000\000\000/\000\000\000\007\007\000\000\017\000\000\000\334\004\000\000\001\000\000\000\316\020\000\000\025\000\000\000\032\000\000\000\002\000\000\000\347\000\000\000C\000\000\000#\001\000\000\"\000\000\000\014\000\000\000a\003\000\000\201\010\000\000\t\000\000\000*\000\000\000\206\021\000\000\002\000\000\000K\000\000\000\206\001\000\000\002\000\000\000\336\t\000\000\036\000\000\000\270\004\000\000I\001\000\000\004\000\000\000\021\023\000\000\003\005\000\000A\005\000\000\007\000\000\000\265\000\000\000\031\000\000\000\343\000\000\0000\t\000\000!\000\000\000|\000\000\000W\002\000\000=\000\000\000\006\000\000\000\t\000\000\000\233\002\000\000\000\000\000\000\352\003\000\000\005\000\000\000\000\000\000\000M\000\000\000E\001\000\000\016\000\000\000\305\000\000\000\007\000\000\000O\021\000\000/\000\000\000\330\002\000\000\006\000\000\000\t\000\000\000d\000\000\000\'\000\000\000/\000\000\000\227\007\000\000=\000\000\000\006\000\000\000\t\000\000\000p\000\000\000P\005\000\000\003\000\000\000\034\000\000\000d\002\000\000x\000\000\000\035\000\000\000\t\000\000\000p\000\000\000\205\004\000\000c\004\000\000\002\000\000\000V\000\000\000\031\000\000\000\245\000\000\000\002\000\000\000\000\000\000\000(\000\000\000\236\001\000\000\003\000\000\000\000\000\000\0002\000\000\000\001\000\000\000\002\000\000\000\000\000\000\0005\002\000\000\205\000\000\000\003\000\000\000\000\000\000\000b\001\000\000\001\000\000\000\303\001\000\000\253\001\000\000\001\000\000\000m\t\000\000D\001\000\000\036\000\000\000\001\006\000\000\000\000\000\000N\000\000\000T\002\000\000\002\000\000\000]\004\000\000\022\000\000\000\274\002\000\000\n\000\000\000\022\000\000\0003\001\000\000\020\000\000\000C\000\000\000\002\000\000\000V\000\000\0000\004\000\000,\000\000\000\002\000\000\000\310\n\000\000\004\000\000\000\300\001\000\000\003\000\000\000/\000\000\000\341\000\000\000\001\000\000\000\257\004\000\000~\t\000\000\002\000\000\000\326\006\000\000C\000\000\000\"\000\000\000\007\000\000\000V\000\000\000\t\000\000\000\222\001\000\000\002\000\000\000<\002\000\000a\002\000\000\372\000\000\000!\000\000\000\177\003\000\000\216\004\000\000I\001\000\000\374\000\000\000\002\000\000\000\026\000\000\000\332\005\000\000<\000\000\000,\005\000\000\021\000\000\000\302\005\000\000\022\000\000\000\332\005\000\000<\000\000\000\001\000\000\000\t\000\000\000\034\003\000\000\334\017\000\000\n\000\000\000\020\000\000\000\000\000\000\000\277\002\000\000\232\002\000\000\035\000\000\000\207\001\000\0001\000\000\000^\003\000\000S\000\000\000\216\003\000\000\002\000\000\000\034\000\000\000|\022\000\000\020\000\000\000\014\000\000\000\030\000\000\000\214\004\000\000S\004\000\000\000\000\000\000\027\002\000\000\307\n\000\000\003\000\000\000\034\000\000\000`\003\000\0009\005\000\000?\000\000\000%\000\000\000\302\004\000\000\003\000\000\000\341\000\000\0009\000\000\000-\000\000\000n\000\000\000\002\000\000\000V\000\000\000\025\000\000\000\024\001\000\000 \000\000\000\000\000\000\000\313\001\000\000\016\000\000\000\370\002\000\000\003\000\000\000\032\000\000\000-\000\000\000p\n\000\0004\000\000\000\322\003\000\000S\000\000\000R\006\000\000\005\000\000\000w\005\000\000\007\000\000\000\030\000\000\000\005\000\000\000\265\001\000\000\007\000\000\000%\000\000\000\307\006\000\000\000\000\000\000\236\000\000\000\036\001\000\000\330\000\000\000\005\000\000\000u\000\000\000\325\000\000\000F\001\000\000\t\000\000\000\001\000\000\000\000\000\000\000I\000\000\000+\000\000\000[\000\000\000\234\023\000\000W\001\000\000\003\000\000\000(\000\000\000\031\000\000\000G\000\000\000\n\001\000\000f\001\000\000\007\000\000\000+\000\000\000$\000\000\000\213\003\000\000\006\000\000\0000\000\000\000K\000\000\000\005\000\000\000\021\000\000\000\000\000\000\000\277\002\000\000:\000\000\000?\r\000\000<\000\000\000\000\000\000\000\213\003\000\000\003\000\000\000\341\t\000\000\365\005\000\000\001\000\000\000L\001\000\000J\000\000\000R\003\000\000\002\000\000\000w\002\000\000\002\000\000\0004\000\000\000\341\005\000\000\304\004\000\000\020\000\000\000\006\000\000\000k\001\000\000\t\000\000\000Y\001\000\000\007\000\000\000:\000\000\000\037\002\000\000[\000\000\000t\000\000\000\325\001\000\000w\000\000\000\025\000\000\000\004\000\000\000\361\002\000\000Z\003\000\000\003\000\000\000\013\004\000\000\005\000\000\0004\000\000\0002\023\000\000\t\000\000\000Y\001\000\000\006\000\000\000!\002\000\000\260\001\000\000\000\000\000\000\224\000\000\000\t\000\000\000\377\000\000\000\026\000\000\000\212\000\000\000U\001\000\000\002\000\000\000\313\000\000\000Z\001\000\000\003\000\000\000\266\004\000\000\007\000\000\000\344\001\000\000\016\000\000\000\241\000\000\000\024\000\000\000\026\000\000\000U\001\000\000\002\000\000\000\307\004\000\000\362\000\000\000\037\000\000\000\263\000\000\000\t\000\000\000\'\000\000\000\024\000\000\000\265\000\000\000\020\000\000\000g\020\000\000\355\002\000\000\t\000\000\000\377\000\000\000\315\001\000\000\002\000\000\000]\000\000\000J\000\000\000\005\000\000\000\t\006\000\000S\001\000\000\001\000\000\000\370\003\000\000\036\000\000\000\214\007\000\000<\000\000\000\177\003\000\000\n\000\000\000Q\000\000\000\026\000\000\000<\000\000\000\005\000\000\000\004\000\000\000f\000\000\000h\001\000\000\364\006\000\000\007\000\000\000\374\000\000\000\002\000\000\000\313\000\000\000C\000\000\000?\006\000\000!\000\000\000+\005\000\000\277\001\000\000g\000\000\000\212\005\000\000\035\000\000\000\000\000\000\000\224\000\000\000\t\003\000\000\177\000\000\000\013\000\000\000b\000\000\000\201\001\000\000\t\000\000\000m\000\000\0000\000\000\000k\001\000\000\370\000\000\000\007\000\000\000\000\001\000\000\024\000\000\000\326\006\000\000\017\001\000\000\010\000\000\000\013\000\000\000\023\002\000\000\207\000\000\000\214\000\000\000%\000\000\000\024\000\000\000X\000\000\000\303\t\000\000\001\000\000\000\014\000\000\000;\000\000\000\024\000\000\000\177\t\000\0005\000\000\000\003\000\000\000\270\000\000\000&\000\000\000S\000\000\000\254\007\000\000\016\000\000\000\004\000\000\000\t\006\000\000\001\000\000\0009\006\000\000$\000\000\000&\003\000\000\005\000\000\000\237\002\000\000\002\000\000\000\303\001\000\000\253\001\000\000\001\000\000\000m\t\000\000D\001\000\000]\000\000\000\306\002\000\000;\006\000\000\027\000\000\000d\000\000\000V\000\000\000\002\000\000\000\032\000\000\000\031\000\000\000\245\000\000\000\210\000\000\0005\000\000\000!\001\000\000\026\010\000\000\002\000\000\000\000\000\000\000\271\000\000\000\025\001\000\000\001\000\000\000K\006\000\000\002\000\000\000\005\004\000\000&\000\000\000G\000\000\000\343\001\000\000\363\014\000\000$\023\000\000\366\002\000\0001\000\000\000\010\000\000\000\024\000\000\000\212\000\000\000p\006\000\000\025\000\000\000\034\000\000\000\254\010\000\000\016\000\000\000*\000\000\000\024\000\000\000\232\000\000\000\003\000\000\000S\000\000\0003\001\000\000i\000\000\000\002\000\000\000\345\001\000\000\000\000\000\000\001\003\000\000\r\000\000\000}\000\000\000\006\000\000\000W\000\000\000\025\000\000\000\021\000\000\000\013\000\000\000\024\016\000\000\001\000\000\000\226\006\000\000\266\014\000\000\010\000\000\000\330\006\000\000\002\000\000\000\324\006\000\000)\000\000\000S\000\000\000s\007\000\000\r\000\000\000\023\000\000\000H\000\000\000\001\000\000\000*\000\000\000\024\000\000\000\230\001\000\000\026\000\000\000\277\000\000\000#\000\000\000\013\000\000\000U\006\000\000\366\017\000\000\r\000\000\000*\000\000\000m\000\000\0000\000\000\000M\000\000\000\265\001\000\000\002\000\000\000\000\000\000\000\330\000\000\000\311\000\000\000\003\000\000\000D\000\000\000\005\000\000\000\000\000\000\000\262\t\000\000s\000\000\000\005\005\000\000\000\000\000\000\270\002\000\000J\000\000\000\r\000\000\000\010\000\000\000\002\000\000\000\027\003\000\000T\006\000\000\201\010\000\000\016\000\000\000!\000\000\000\010\000\000\000\024\000\000\000\004\000\000\000\330\000\000\000\r\000\000\000\010\000\000\000\004\000\000\000b\000\000\000\233\000\000\0009\000\000\000\023\000\000\000\203\000\000\000#\000\000\000\010\006\000\000\002\000\000\000\237\001\000\000\005\000\000\000\000\000\000\000\202\000\000\000\003\000\000\000D\000\000\000!\000\000\000\241\000\000\000,\r\000\000\242\005\000\000\006\000\000\000\002\000\000\000\035\000\000\000-\000\000\000\026\000\000\000\017\000\000\000\252\000\000\000\016\000\000\000\002\000\000\000k\000\000\000\370\014\000\000\240\013\000\000-\000\000\000\026\000\000\000X\000\000\000\027\002\000\000\000\000\000\000X\000\000\000s\004\000\000\006\000\000\000!\000\000\000H\002\000\000\005\000\000\000u\000\000\000\001\000\000\000\023\000\000\000Y\000\000\000H\000\000\000\004\000\000\000\224\000\000\000)\000\000\000\013\000\000\000\201\001\000\000W\000\000\000\267\010\000\000\013\000\000\000#\000\000\000\270\000\000\000.\010\000\000,\000\000\000\267\022\000\000S\000\000\000M\000\000\0009\013\000\000\223\010\000\000\017\000\000\000\273\000\000\000\017\000\000\000\r\000\000\000H\002\000\000\005\000\000\000\006\000\000\000\003\002\000\000\r\000\000\000*\000\000\000\024\000\000\000\267\003\000\000\032\007\000\000\237\007\000\000\001\000\000\000-\000\000\000\371\000\000\000\355\003\000\000\000\000\000\000\307\001\000\000b\000\000\000\233\000\000\0009\000\000\000\023\000\000\000\203\000\000\000\002\000\000\000u\000\000\000\034\002\000\000\005\000\000\000g\000\000\000i\000\000\000\r\000\000\000\256\000\000\000\006\000\000\000\003\002\000\000,\000\000\000\010\000\000\000a\022\000\000\200\000\000\000#\000\000\000\n\000\000\000\016\000\000\000!\000\000\000\010\000\000\000\004\000\000\000\372\017\000\000.\006\000\000\001\000\000\000\241\000\000\000E\006\000\000\026\000\000\000\250\005\000\000,\000\000\000\276\003\000\000^\000\000\000\370\002\000\000\003\000\000\000\013\000\000\000\341\000\000\000*\000\000\000\232\001\000\000\227\000\000\000\013\000\000\000\r\000\000\000\225\005\000\000\020\000\000\000\365\016\000\000\026\000\000\000\000\002\000\0007\000\000\000\247\010\000\000\001\000\000\000\000\000\000\000\247\010\000\000y\000\000\000-\001\000\000?\005\000\000\001\000\000\000\257\003\000\000#\000\000\000\211\020\000\000*\000\000\000\026\000\000\000\364\023\000\000t\006\000\000,\000\000\000\r\000\000\000\241\000\000\000\026\000\000\000d\013\000\000-\002\000\000m\023\000\000,\000\000\000{\007\000\000\005\000\000\000K\000\000\000\035\002\000\000)\000\000\000\202\002\000\000\236\017\000\000\030\000\000\000\r\000\000\000\024\000\000\000\306\004\000\000Q\006\000\000]\000\000\000w\r\000\0001\000\000\000\010\000\000\000S\004\000\000y\000\000\000\r\000\000\000\202\020\000\000\025\000\000\000\006\004\000\000@\023\000\000\013\000\000\000\035\001\000\000\347\005\000\000\233\001\000\000\000\000\000\000t\000\000\000q\000\000\000\237\020\000\000\001\000\000\000\337\002\000\000\004\000\000\000\357\001\000\000#\000\000\000\013\000\000\000\261\r\000\000o\016\000\000\n\000\000\000\002\000\000\000!\000\000\000g\002\000\000\034\000\000\000\357\001\000\000\235\003\000\000\240\000\000\0004\000\000\000i\006\000\000\r\000\000\000 \000\000\000\002\000\000\000\000\000\000\000\233\000\000\000\"\000\000\000\027\002\000\000\265\001\000\000\t\023\000\000\024\001\000\000\030\004\000\000\000\000\000\000\357\001\000\000\217\000\000\000&\000\000\0004\000\000\000z\004\000\000\245\000\000\000\002\000\000\000\000\000\000\000\363\000\000\000\001\000\000\000\335\000\000\000\030\004\000\000\002\000\000\000\000\000\000\000\256\000\000\000\006\000\000\000;\000\000\000\357\001\000\000\000\000\000\000\304\002\000\000s\002\000\000\005\000\000\000/\000\000\000\246\000\000\000\001\000\000\000\t\000\000\000;\000\000\000\031\000\000\000\245\000\000\000\203\000\000\000\002\000\000\0004\000\000\000O\001\000\000\016\000\000\000\'\000\000\000\024\000\000\000\300\000\000\000\000\000\000\000\357\001\000\000\034\002\000\000\007\000\000\000%\000\000\000\334\006\000\000\005\000\000\000\265\001\000\000\003\000\000\000|\007\000\000y\000\000\000\007\000\000\000\355\003\000\000\025\000\000\000\224\000\000\000\035\000\000\000\t\000\000\000Y\001\000\000\r\000\000\000;\000\000\000\026\000\000\000U\001\000\000\002\000\000\000\307\004\000\000\007\000\000\000#\000\000\000\021\000\000\000Y\017\000\000\301\016\000\000\022\004\000\000\024\001\000\000\244\000\000\000g\006\000\000!\000\000\000\370\007\000\000\017\000\000\000\r\000\000\000\375\002\000\000\000\000\000\000\357\001\000\000&\000\000\000\013\000\000\000z\004\000\000|\000\000\000\374\000\000\000\002\000\000\000g\002\000\000/\000\000\000(\000\000\000a\005\000\0003\000\000\000\t\000\000\000\314\000\000\000#\000\000\000\000\000\000\000|\010\000\0001\010\000\000a\002\000\000\037\000\000\000\t\000\000\000?\002\000\000\235\001\000\000\026\000\000\000o\006\000\000#\000\000\000u\001\000\000\000\000\000\0002\000\000\000\001\000\000\000A\000\000\000\354\000\000\000\002\000\000\000\'\000\000\000\002\000\000\000C\000\000\000\035\000\000\000\023\000\000\000\230\000\000\000\366\006\000\000\002\000\000\000_\000\000\000\222\000\000\000\r\000\000\000*\000\000\000\205\001\000\000\013\000\000\000`\002\000\000\001\000\000\000\013\000\000\000\246\000\000\000\005\000\000\000\000\000\000\000\271\000\000\000(\002\000\000s\000\000\000\020\000\000\000\004\000\000\000\244\006\000\000\003\000\000\000\004\000\000\000\267\001\000\000p\007\000\000\037\000\000\000\r\000\000\000\n\007\000\0000\016\000\000\002\000\000\0001\000\000\000\001\000\000\000\025\000\000\000!\000\000\000,\003\000\0007\000\000\000\000\000\000\000 \001\000\000\030\003\000\000\004\000\000\000\355\000\000\000\002\000\000\000\000\000\000\000k\002\000\000\253\002\000\000\031\002\000\000\006\000\000\0007\004\000\000\377\001\000\000&\000\000\000\000\000\000\000!\001\000\000\241\004\000\000\001\000\000\000\037\000\000\000\\\002\000\000\\\000\000\000\033\000\000\000\361\003\000\000\006\000\000\000!\000\000\000\010\000\000\000\265\002\000\000\002\000\000\000^\002\000\000,\000\000\000\'\000\000\000u\001\000\000\016\000\000\000\216\002\000\000\025\023\000\000\002\000\000\000\013\000\000\000\366\003\000\000\021\000\000\000\000\000\000\000i\000\000\000\250\000\000\000\002\000\000\000\000\000\000\000\271\000\000\000\025\001\000\000\327\000\000\000\207\000\000\000\035\000\000\000\001\000\000\000!\000\000\000\204\021\000\000\005\000\000\000\307\000\000\000\246\000\000\000\031\000\000\000\034\000\000\000\225\000\000\000\010\000\000\000\004\000\000\000\237\001\000\000s\006\000\000\004\000\000\000\236\000\000\000h\003\000\000\001\000\000\000\223\002\000\000\377\001\000\0009\000\000\000\023\000\000\000\245\000\000\000\333\004\000\000\000\000\000\000\202\000\000\000\003\000\000\000D\000\000\000\020\000\000\000\004\000\000\000m\005\000\000\240\010\000\000\001\000\000\000\010\000\000\000\211\000\000\000\227\002\000\000\001\000\000\000\207\021\000\000)\000\000\000\021\000\000\000\000\000\000\000J\000\000\000\245\000\000\000\004\000\000\000\332\003\000\000u\004\000\000\023\000\000\000\021\003\000\000k\000\000\000\351\001\000\000\273\022\000\000\003\000\000\000J\004\000\000\025\000\000\000\222\006\000\000\001\000\000\000R\002\000\000\021\003\000\000=\013\000\000&\000\000\000\000\000\000\000\333\001\000\000\001\000\000\000\367\000\000\000\004\000\000\000\212\020\000\000\003\000\000\000\021\003\000\000\224\005\000\000\'\016\000\000\020\000\000\000\334\001\000\000\000\000\000\000\234\000\000\000\003\000\000\000\000\000\000\000\274\000\000\000\010\000\000\000\004\000\000\000\021\003\000\000\005\t\000\000\276\007\000\000\002\000\000\000\000\000\000\000\037\007\000\000\025\000\000\000<\003\000\000~\010\000\000W\003\000\000\001\000\000\000\267\005\000\000\275\004\000\000&\000\000\000\000\000\000\000\005\t\000\000B\000\000\000\004\000\000\000\356\005\000\000\023\000\000\000Y\000\000\000R\002\000\000&\000\000\000\000\000\000\000\362\005\000\000\000\000\000\000\216\001\000\000\010\000\000\000\004\000\000\000t\000\000\000\305\016\000\000\003\000\000\000\004\000\000\000)\001\000\000\000\000\000\000u\004\000\000\375\002\000\000\000\000\000\000\274\000\000\000&\000\000\000\004\000\000\000A\006\000\000\005\000\000\000.\000\000\000\021\014\000\000\001\000\000\000\n\000\000\000\226\000\000\000\002\000\000\000\r\002\000\000\005\000\000\000\004\000\000\0003\003\000\000h\001\000\000\204\000\000\0009\000\000\000\010\000\000\000\227\010\000\000)\000\000\000\000\000\000\000\245\r\000\000\010\000\000\000f\016\000\000)\000\000\000\000\000\000\000\237\001\000\000\274\000\000\000\001\000\000\000\253\004\000\000e\000\000\000\234\002\000\000.\000\000\000A\006\000\000\033\000\000\000@\000\000\000\315\000\000\000\025\000\000\000\013\000\000\000\002\000\000\000\000\000\000\000\271\000\000\000(\002\000\000^\000\000\000\000\000\000\000I\000\000\000\003\000\000\000D\000\000\000\202\001\000\000e\000\000\000g\000\000\000U\r\000\000\314\002\000\000\001\000\000\000\000\000\000\000\274\000\000\000\353\000\000\0002\001\000\000k\000\000\000C\002\000\000\263\020\000\000\035\000\000\000R\004\000\000\000\000\000\000\274\000\000\000$\000\000\000\003\000\000\000\013\000\000\000\372\001\000\000\341\000\000\000\001\000\000\000\236\000\000\000\257\004\000\000r\003\000\000\037\000\000\000\000\000\000\000\366\002\000\000z\000\000\000\013\000\000\000\027\003\000\000\002\000\000\0001\000\000\000\r\000\000\000x\000\000\000e\000\000\000\002\000\000\000\313\000\000\000\013\000\000\000\317\000\000\000\017\000\000\000\311\000\000\000\003\000\000\000\000\000\000\000\202\000\000\000\003\000\000\000D\000\000\000y\000\000\000\r\000\000\000\010\000\000\000V\n\000\000&\000\000\000\004\000\000\000\241\004\000\000\001\000\000\000\000\000\000\000\274\000\000\000\031\000\000\000\245\000\000\000Z\007\000\000\006\001\000\000\372\006\000\000S\000\000\000\315\010\000\000\035\000\000\000\023\000\000\000\263\006\000\000!\000\000\000\002\000\000\000:\001\000\000\036\000\000\000\343\001\000\000\004\000\000\000k\003\000\000\001\000\000\000l\001\000\000\252\000\000\000\002\000\000\000t\001\000\000v\000\000\000\000\000\000\0002\000\000\000\001\000\000\000A\000\000\000\240\000\000\000\036\000\000\000i\006\000\000\001\000\000\000!\000\000\000\246\002\000\000\002\000\000\000\347\000\000\000\r\000\000\000N\010\000\000\002\000\000\000\242\000\000\000\013\000\000\000\233\000\000\000\204\002\000\000\025\004\000\000\320\001\000\000\001\000\000\000\263\001\000\000\036\007\000\000\003\000\000\000\000\000\000\0009\005\000\000\014\000\000\000\030\000\000\000\262\t\000\000\016\000\000\000e\021\000\000#\000\000\000q\006\000\000\004\000\000\000\355\000\000\000&\000\000\000\000\000\000\000\366\004\000\000\325\000\000\000F\001\000\000]\000\000\000\214\000\000\000H\002\000\000\025\000\000\000\013\000\000\000\005\000\000\000\307\000\000\000\246\000\000\000\303\003\000\000N\000\000\0001\000\000\000\000\000\000\000q\000\000\000}\000\000\000\014\000\000\000\030\000\000\000\361\007\000\000\240\000\000\000z\000\000\000\014\000\000\000\023\000\000\000\363\007\000\000\001\000\000\000s\000\000\000\000\000\000\000q\000\000\000y\001\000\000P\000\000\0006\000\000\000\036\000\000\000\254\007\000\000\241\000\000\000\026\000\000\000\224\000\000\000\035\000\000\000\314\000\000\000\000\000\000\000\253\002\000\000\001\000\000\000\000\000\000\000 \001\000\000\034\005\000\000\325\000\000\000\r\000\000\000\010\000\000\000\024\000\000\000\262\000\000\000?\000\000\000\010\000\000\000\004\000\000\000\030\003\000\000\325\004\000\000\021\000\000\000\000\000\000\000i\000\000\000\002\000\000\000\000\000\000\000E\000\000\000\003\000\000\000\000\000\000\0002\000\000\000\000\000\000\000\202\000\000\000\003\000\000\000D\000\000\000\022\000\000\000\004\000\000\000\037\001\000\000\326\000\000\000\253\010\000\000\374\004\000\000&\000\000\000\021\000\000\000\375\003\000\000)\000\000\000\004\000\000\000Z\014\000\000a\004\000\0003\000\000\000\n\000\000\000\022\000\000\000\030\010\000\000\002\000\000\0009\014\000\000\001\000\000\000\000\000\000\000\253\000\000\000\264\001\000\000\327\006\000\000\002\000\000\000\000\000\000\000\254\017\000\000\010\000\000\000\005\000\000\000\000\000\000\000\214\r\000\000/\020\000\000\020\001\000\000\003\000\000\000u\000\000\000?\013\000\000&\000\000\000\000\000\000\000}\010\000\000a\004\000\000\017\000\000\000\000\000\000\000\271\000\000\000\025\001\000\000\010\000\000\000\002\002\000\000\005\000\000\000\000\000\000\000\330\001\000\000\003\000\000\000u\000\000\000\n\000\000\000\010\000\000\0000\000\000\000\322\000\000\000\343\001\000\000#\000\000\000?\000\000\000\002\000\000\000\000\000\000\0002\000\000\000\217\000\000\000\000\000\000\000\271\000\000\000\025\001\000\000\000\000\000\000\357\000\000\000\022\000\000\000\213\t\000\000\356\021\000\000\005\000\000\000\264\000\000\000\252\005\000\000\016\000\000\000\000\000\000\000>\003\000\000\200\000\000\000\007\000\000\000`\000\000\000#\000\000\000\000\000\000\000\025\001\000\000\000\000\000\000\244\r\000\000J\000\000\000?\000\000\000\211\003\000\000\240\000\000\000\266\000\000\000\276\004\000\000\006\000\000\000>\013\000\000&\000\000\000\000\000\000\000a\004\000\000+\000\000\000\322\000\000\000\336\020\000\000\334\000\000\000\266\000\000\000t\004\000\000\026\t\000\000%\000\000\000b\000\000\000\311\003\000\000\002\000\000\000\000\000\000\000D\000\000\000\021\001\000\0007\002\000\000\005\000\000\000\000\000\000\000P\t\000\000^\000\000\0001\000\000\000J\010\000\000\001\000\000\000^\000\000\000!\000\000\000\201\000\000\000\350\001\000\000\035\004\000\000&\000\000\000\250\t\000\000\003\000\000\000\270\007\000\000\000\000\000\000\316\003\000\000\311\003\000\000\003\000\000\000\021\000\000\000\022\000\000\000\000\000\000\000\206\002\000\000\264\001\000\0003\000\000\000y\016\000\000\230\000\000\000\001\001\000\000\014\007\000\000\003\000\000\000J\000\000\000C\001\000\000a\000\000\000s\010\000\000\001\000\000\000\231\023\000\000\001\000\000\000\336\007\000\000\001\000\000\000\234\022\000\000\001\000\000\000\035\000\000\000\010\000\000\000=\000\000\000E\013\000\000\020\000\000\000\000\000\000\000\236\000\000\000\272\014\000\000\020\001\000\000\003\000\000\000\000\000\000\000\206\002\000\000\357\000\000\000\t\000\000\000p\000\000\000\215\001\000\000P\022\000\000 \000\000\000\035\000\000\000\002\000\000\000\204\000\000\000\017\000\000\000\014\000\000\000j\006\000\000\200\000\000\000\005\000\000\000\000\000\000\000 \001\000\000\034\005\000\000\024\000\000\000\002\000\000\000P\000\000\000[\000\000\000v\000\000\000\000\000\000\000\324\001\000\000\202\000\000\000\t\000\000\000\306\001\000\000\n\000\000\000\022\000\000\000/\000\000\000\200\002\000\000\002\000\000\000\026\000\000\0003\005\000\000\025\000\000\000\264\000\000\000J\023\000\000\003\000\000\000J\000\000\000\001\000\000\000\264\000\000\000\001\001\000\000\001\000\000\000\276\003\000\000\357\000\000\000\005\000\000\000\021\000\000\000u\000\000\000\016\000\000\000\t\000\000\000p\000\000\000g\001\000\000\037\000\000\000-\007\000\000\031\000\000\000/\000\000\000\246\000\000\000L\001\000\000K\001\000\000\001\000\000\000\307\020\000\000\020\000\000\000\000\000\000\000\312\013\000\000\003\000\000\000\266\000\000\0009\000\000\000\237\001\000\000j\001\000\000\000\000\000\000\271\000\000\000(\002\000\000\006\000\000\000\t\000\000\000\'\000\000\000\024\000\000\000\350\001\000\000\227\000\000\000\225\000\000\000\002\000\000\000_\000\000\000\273\000\000\000\032\017\000\000\301\000\000\000\213\000\000\000\204\000\000\000}\003\000\000N\006\000\000\227\000\000\000O\000\000\000\004\000\000\000\016\002\000\000&\000\000\000\034\000\000\000O\023\000\000\001\000\000\000}\003\000\000\315\003\000\000\021\000\000\000v\000\000\000\000\000\000\0002\000\000\000\001\000\000\000b\001\000\000A\005\000\000\225\000\000\000~\002\000\000_\000\000\000\211\000\000\000\216\014\000\000\005\000\000\000\000\000\000\000\202\000\000\000\003\000\000\000u\000\000\000,\005\000\000\027\000\000\000\251\000\000\000\267\003\000\000\032\004\000\000,\000\000\000`\000\000\000\206\010\000\000,\000\000\000r\002\000\000\013\022\000\000\001\000\000\000\215\014\000\000\017\000\000\000\014\000\000\000\'\000\000\000K\000\000\000>\006\000\000\365\000\000\000\"\000\000\000\027\000\000\000m\r\000\000$\000\000\000\317\000\000\000\031\000\000\000\004\000\000\000\217\001\000\000}\003\000\000g\013\000\000P\000\000\000\021\000\000\000v\000\000\000\264\000\000\000-\020\000\000\001\000\000\000\223\005\000\000\005\000\000\000D\000\000\000!\000\000\000\'\004\000\000\217\000\000\000\013\000\000\000\271\023\000\000\000\000\000\000|\010\000\000)\017\000\000(\000\000\000\030\013\000\0003\000\000\000Q\006\000\000\013\000\000\000#\000\000\000\003\010\000\000\001\000\000\000\000\000\000\000(\000\000\000\357\001\000\0003\000\000\0001\000\000\000\023\000\000\000\207\002\000\000\013\000\000\000\010\000\000\000&\000\000\000\013\000\000\000z\004\000\000\035\000\000\000\023\000\000\000\326\003\000\000<\t\000\000\004\000\000\000\322\000\000\000\332\000\000\000r\001\000\0007\000\000\000\000\000\000\000\313\002\000\000\003\000\000\000\013\000\000\0004\016\000\000\020\000\000\000|\001\000\000\'\000\000\000\024\000\000\000\300\000\000\000\235\013\000\000\001\000\000\000\220\016\000\000\001\000\000\000\000\000\000\000x\003\000\000\003\000\000\000\350\t\000\000\001\000\000\000\211\006\000\000\002\000\000\000\241\002\000\000\036\000\000\000(\000\000\000\000\000\000\000\332\000\000\000r\001\000\000\010\000\000\000\307\000\000\000$\000\000\000\323\023\000\000\003\000\000\000S\020\000\000\001\000\000\000d\014\000\000\001\000\000\000)\000\000\000a\000\000\000\300\000\000\000\r\000\000\000*\000\000\000\037\002\000\000\230\000\000\000\366\000\000\000\014\000\000\000\023\000\000\000\256\000\000\000\000\000\000\000\271\000\000\000\025\001\000\000f\000\000\000\031\000\000\000{\t\000\000\001\000\000\000\000\000\000\000\253\002\000\0009\023\000\000X\000\000\000\\\002\000\000o\000\000\000\000\000\000\000\235\021\000\000-\023\000\000\000\000\000\000.\020\000\000\016\000\000\000\005\000\000\000\004\000\000\000\267\001\000\000J\003\000\000\000\000\000\000k\002\000\000@\005\000\000\023\000\000\000\002\000\000\000+\022\000\000.\000\000\000\201\020\000\000\254\000\000\000\000\000\000\000\212\r\000\000\354\002\000\000\023\000\000\000r\002\000\000\267\001\000\000\001\000\000\000}\001\000\000D\001\000\000\001\000\000\000\350\001\000\000?\000\000\000\030\000\000\0000\000\000\000\277\004\000\000\031\000\000\000\021\000\000\000\005\000\000\000\000\000\000\000\251\005\000\000\014\000\000\000%\004\000\000\002\000\000\000\255\003\000\000\031\000\000\000\231\000\000\000\364\001\000\000\014\000\000\000e\007\000\000\000\000\000\000\246\r\000\000\344\n\000\000Q\016\000\000\003\000\000\000\220\001\000\000\001\000\000\000\336\r\000\000\000\000\000\000\233\022\000\000\001\000\000\000\234\021\000\000\273\002\000\000\014\000\000\000\226\000\000\000\002\000\000\000\032\000\000\000\016\000\000\000\233\001\000\000\014\000\000\000N\001\000\000\004\000\000\000%\003\000\000\372\005\000\000\324\002\000\000x\001\000\000\025\000\000\000\022\t\000\000\\\013\000\000r\000\000\0003\000\000\000\000\000\000\000\030\003\000\000*\000\000\000\024\000\000\000\240\002\000\000\n\000\000\000;\000\000\000\026\000\000\000\331\002\000\000s\000\000\000\020\000\000\000\007\000\000\000\001\000\000\000C\000\000\000\002\000\000\000`\000\000\000r\000\000\000\006\001\000\000\354\022\000\000G\000\000\000\335\014\000\000 \000\000\000W\000\000\000\037\000\000\000\027\000\000\000d\000\000\000\205\001\000\000\000\000\000\000\253\002\000\000\001\000\000\000\000\000\000\000\030\003\000\000\221\000\000\000\240\000\000\000G\000\000\000!\001\000\000\317\001\000\000\021\000\000\000\024\002\000\000!\000\000\000b\006\000\000|\000\000\000\237\006\000\000\225\021\000\000A\005\000\000\'\000\000\000\007\000\000\000\270\021\000\000W\000\000\000\272\002\000\000\207\003\000\000j\001\000\000\000\000\000\000\253\000\000\000\357\000\000\000\t\000\000\000w\001\000\000\232\006\000\000!\000\000\000\330\002\000\000\016\000\000\000\t\000\000\000P\000\000\000~\003\000\000Y\000\000\000\374\000\000\000\005\000\000\000\000\000\000\000\363\000\000\000\252\005\000\000\037\000\000\000\027\000\000\000%\000\000\000\262\000\000\000\002\000\000\000\227\000\000\000\n\000\000\000\005\000\000\000\225\000\000\000\000\000\000\000\022\t\000\000[\013\000\000\010\000\000\000\037\003\000\000n\000\000\000\004\000\000\000R\016\000\000\003\000\000\000\322\000\000\000\024\003\000\000\020\000\000\000\n\000\000\000N\001\000\000\017\000\000\000H\003\000\000\017\000\000\000\000\000\000\000\336\001\000\000\003\000\000\000\000\000\000\000\207\000\000\000\007\002\000\000\232\002\000\000\003\000\000\000h\002\000\000\010\000\000\000X\000\000\000\022\003\000\000\014\000\000\000\030\000\000\000\334\003\000\000\002\000\000\000\220\t\000\000\036\000\000\000i\000\000\000\005\000\000\000\001\000\000\000O\002\000\000\240\000\000\000!\000\000\000\010\000\000\000 \002\000\000\014\000\000\000-\000\000\000`\000\000\000Q\010\000\000\001\000\000\000\233\001\000\000\014\000\000\000\030\000\000\000\213\002\000\000)\000\000\000\004\000\000\0003\003\000\000\216\001\000\000\006\000\000\000\375\n\000\000\036\000\000\000\205\002\000\000\027\021\000\000\n\000\000\000\010\000\000\000\004\000\000\000\220\002\000\000s\001\000\000<\000\000\000\017\000\000\000\"\000\000\000\306\006\000\000)\000\000\000\026\016\000\000\316\001\000\000<\000\000\000\001\000\000\000\000\000\000\000m\014\000\0008\017\000\000\255\r\000\000\010\000\000\000\276\007\000\000\223\022\000\000\002\000\000\000\000\000\000\000j\005\000\000\003\000\000\000\000\000\000\000\230\003\000\000\001\000\000\000+\002\000\000\002\000\000\000\000\000\000\000\363\000\000\000\001\000\000\000\256\000\000\000\005\000\000\000\000\000\000\000\030\001\000\000\003\000\000\000\004\000\000\000\212\002\000\000\323\002\000\000\000\000\000\000\221\t\000\000\003\000\000\000\034\000\000\000s\001\000\000\030\000\000\000\003\000\000\000\004\000\000\000$\003\000\000\244\001\000\000K\004\000\000\001\000\000\000\306\006\000\0007\000\000\000:\020\000\000\302\n\000\000\235\020\000\000\016\000\000\000\n\000\000\000N\001\000\000#\000\000\000\000\000\000\000\010\002\000\000\002\000\000\000j\005\000\000\356\000\000\000\000\000\000\000\336\001\000\000\003\000\000\000\000\000\000\000\214\000\000\000\001\000\000\000B\003\000\000\004\000\000\000\314\001\000\000\003\000\000\000\241\r\000\000\006\000\000\000\212\016\000\000\032\000\000\000\005\000\000\000\n\000\000\000~\002\000\000\265\000\000\000X\000\000\000\244\022\000\000\216\t\000\000 \000\000\000!\000\000\000\t\000\000\000&\004\000\000\"\000\000\000\027\000\000\000]\001\000\000\326\001\000\000r\000\000\000\r\000\000\000\365\001\000\000\016\000\000\000\272\000\000\000\000\000\000\000s\001\000\000\245\022\000\000w\000\000\000\n\000\000\000\364\000\000\000\021\000\000\000\013\000\000\000j\004\000\000*\000\000\000\024\000\000\000\326\001\000\000\004\000\000\000\376\003\000\000\220\t\000\000\027\000\000\000d\000\000\000V\000\000\000Q\005\000\000\t\000\000\000\004\005\000\000\001\000\000\000\354\000\000\000\002\000\000\000`\000\000\000\217\000\000\000\034\000\000\000\235\010\000\000\"\004\000\000\035\000\000\000\001\002\000\000\037\000\000\000\014\000\000\000\277\000\000\000\002\000\000\000\000\000\000\000\363\000\000\000\"\002\000\000@\003\000\000\000\000\000\000s\001\000\000\272\000\000\000\006\000\000\000\n\000\000\000\364\000\000\000\002\000\000\000\004\004\000\000\005\000\000\000\004\000\000\000\337\010\000\000\323\002\000\000&\000\000\000\001\000\000\000&\000\000\000\014\000\000\000\315\000\000\000\240\000\000\000\233\001\000\000\035\000\000\000 \000\000\000\014\000\000\000\023\000\000\000\350\000\000\000\002\000\000\000\000\000\000\000\260\007\000\000\363\004\000\000#\000\000\0003\000\000\000\014\000\000\000\023\000\000\000\031\002\000\000\221\000\000\000\022\000\000\000\004\000\000\000\271\003\000\000\007\000\000\0007\003\000\000B\000\000\000\027\000\000\000\030\000\000\000\221\000\000\000B\004\000\000\r\000\000\000 \000\000\000\002\000\000\000!\000\000\000\005\000\000\000\006\000\000\000x\005\000\000\014\000\000\000d\000\000\000+\000\000\000\227\003\000\000\000\000\000\000s\001\000\000\371\001\000\000\004\001\000\000z\000\000\000\027\000\000\000\322\001\000\0007\000\000\000\000\000\000\0008\023\000\000\026\001\000\000\000\000\000\000b\000\000\000\233\000\000\000z\003\000\000\260\001\000\000W\000\000\000k\000\000\000\250\007\000\000\201\000\000\000\365\001\000\000\002\000\000\000\320\016\000\0005\000\000\000\001\000\000\000\014\000\000\000\\\000\000\000\343\000\000\000a\002\000\000 \000\000\000!\000\000\000\t\000\000\000&\004\000\0009\000\000\000\n\000\000\000\010\000\000\000I\001\000\000\004\000\000\000_\022\000\000|\000\000\000\212\000\000\000t\003\000\000\350\000\000\000W\000\000\000\016\000\000\000\n\000\000\000d\000\000\000\026\000\000\000\000\000\000\000\302\000\000\000\003\000\000\000k\004\000\000\316\001\000\000\212\000\000\000\363\000\000\000\337\000\000\000\004\000\000\000\321\001\000\000\371\001\000\000\032\000\000\000\031\004\000\000\355\001\000\000\217\000\000\000\014\000\000\000\025\013\000\000\004\000\000\000\220\002\000\000\244\001\000\000\013\003\000\0005\t\000\000\024\000\000\000\207\000\000\000\361\t\000\000\200\000\000\000\001\000\000\000j\021\000\000\032\000\000\000\025\000\000\000a\000\000\000\322\000\000\000\336\000\000\000\255\000\000\000@\000\000\000?\000\000\000)\014\000\000#\000\000\000\000\000\000\000\230\003\000\000\004\000\000\000f\004\000\000[\000\000\000M\000\000\000\244\001\000\000\361\004\000\0003\000\000\000\010\t\000\000\000\000\000\000\373\000\000\000$\000\000\000\001\000\000\000\022\001\000\000\000\000\000\000s\001\000\000\022\000\000\000\263\r\000\0002\006\000\0001\010\000\000\001\000\000\000\000\000\000\000\361\001\000\000%\000\000\000G\000\000\000\304\001\000\000!\000\000\000\\\000\000\000\024\000\000\000n\000\000\000\000\000\000\000\256\004\000\000\003\000\000\000]\000\000\000\316\001\000\000\031\000\000\000\021\000\000\000\014\000\000\000\023\000\000\000\326\000\000\000\220\004\000\000\372\003\000\000\202\005\000\000\322\000\000\000\255\000\000\000\001\000\000\000\007\016\000\000d\001\000\000\021\000\000\000o\000\000\000\036\000\000\000\244\001\000\000h\005\000\000\014\000\000\000\265\000\000\000\357\023\000\000\r\000\000\000\351\023\000\000\002\000\000\000\035\000\000\0006\000\000\000\377\000\000\000\027\000\000\000\'\000\000\000\035\000\000\000\020\016\000\000\177\000\000\000\000\000\000\000\316\001\000\000\025\000\000\000\004\000\000\000\027\002\000\000\027\001\000\0006\000\000\000\022\000\000\0004\000\000\000\371\002\000\000\005\000\000\000L\001\000\0005\000\000\000\304\001\000\000\r\000\000\000\375\000\000\000\027\000\000\000\277\001\000\000m\003\000\000\002\000\000\000:\001\000\000\n\002\000\000\020\000\000\000\004\001\000\000\007\001\000\000\000\000\000\000\013\003\000\000\310\003\000\000?\000\000\000\022\000\000\000\327\022\000\000\001\000\000\000\351\014\000\000\002\000\000\000\026\000\000\000\221\007\000\000\001\000\000\000\327\020\000\000\001\000\000\000\312\023\000\000\003\000\000\000\252\014\000\000\001\000\000\000\006\000\000\000\022\000\000\000\302\000\000\000/\000\000\000J\000\000\000\255\014\000\000\002\000\000\000\'\000\000\000\037\000\000\000\027\000\000\000\001\002\000\000\006\000\000\000\"\000\000\000S\000\000\000\361\001\000\000\226\000\000\000G\000\000\000i\000\000\000\027\000\000\000-\000\000\000\320\002\000\000\032\000\000\000\001\000\000\000_\000\000\000\032\000\000\000G\000\000\000z\006\000\000\t\000\000\000p\000\000\000\224\000\000\000W\000\000\000\311\000\000\000\003\000\000\000\021\000\000\000u\000\000\000 \000\000\000\000\000\000\000\233\000\000\000\025\000\000\000e\004\000\000\301\000\000\000\t\000\000\000p\000\000\000\310\003\000\000\003\000\000\000\021\000\000\000\361\004\000\000\010\000\000\000\000\000\000\000\322\004\000\000\001\000\000\000\006\000\000\000T\003\000\000C\000\000\0004\000\000\000\262\017\000\000\203\000\000\000\025\000\000\000C\000\000\000\002\000\000\000/\000\000\000\246\000\000\000\001\000\000\000\t\000\000\000;\000\000\000 \010\000\000\007\000\000\000\005\000\000\0004\000\000\000\302\000\000\000\t\000\000\000\021\024\000\000 